{
  "version": "1.0",
  "truncation": null,
  "padding": null,
  "added_tokens": [
    {
      "id": 0,
      "content": "[PAD]",
      "single_word": false,
      "lstrip": false,
      "rstrip": false,
      "normalized": false,
      "special": true
    },
    {
      "id": 1,
      "content": "[BOS]",
      "single_word": false,
      "lstrip": false,
      "rstrip": false,
      "normalized": false,
      "special": true
    },
    {
      "id": 2,
      "content": "[EOS]",
      "single_word": false,
      "lstrip": false,
      "rstrip": false,
      "normalized": false,
      "special": true
    },
    {
      "id": 3,
      "content": "[UNK]",
      "single_word": false,
      "lstrip": false,
      "rstrip": false,
      "normalized": false,
      "special": true
    },
    {
      "id": 4,
      "content": "[SEP]",
      "single_word": false,
      "lstrip": false,
      "rstrip": false,
      "normalized": false,
      "special": true
    }
  ],
  "normalizer": null,
  "pre_tokenizer": {
    "type": "Whitespace"
  },
  "post_processor": null,
  "decoder": null,
  "model": {
    "type": "BPE",
    "dropout": null,
    "unk_token": "[UNK]",
    "continuing_subword_prefix": null,
    "end_of_word_suffix": null,
    "fuse_unk": false,
    "byte_fallback": false,
    "ignore_merges": false,
    "vocab": {
      "[PAD]": 0,
      "[BOS]": 1,
      "[EOS]": 2,
      "[UNK]": 3,
      "[SEP]": 4,
      ",": 5,
      ".": 6,
      "0": 7,
      "1": 8,
      "2": 9,
      "3": 10,
      "4": 11,
      "5": 12,
      "6": 13,
      "7": 14,
      "8": 15,
      "9": 16,
      "A": 17,
      "E": 18,
      "I": 19,
      "R": 20,
      "T": 21,
      "_": 22,
      "a": 23,
      "c": 24,
      "d": 25,
      "e": 26,
      "f": 27,
      "g": 28,
      "h": 29,
      "i": 30,
      "l": 31,
      "n": 32,
      "o": 33,
      "p": 34,
      "r": 35,
      "s": 36,
      "t": 37,
      "u": 38,
      "v": 39,
      "w": 40,
      "x": 41,
      "y": 42,
      "_0": 43,
      "_00": 44,
      "ti": 45,
      "ia": 46,
      "on": 47,
      "Al": 48,
      "s_00": 49,
      "ias_00": 50,
      "Alias_00": 51,
      "el": 52,
      "ela": 53,
      "Rela": 54,
      "tion": 55,
      "Relation": 56,
      "Relation_0": 57,
      "is": 58,
      "th": 59,
      "En": 60,
      "ty": 61,
      "tity": 62,
      "Entity": 63,
      "Entity_00": 64,
      "_1": 65,
      "te": 66,
      "the": 67,
      "of": 68,
      "con": 69,
      "to": 70,
      "Relation_04": 71,
      "fo": 72,
      "for": 73,
      "Relation_03": 74,
      "Relation_01": 75,
      "Th": 76,
      "The": 77,
      "In": 78,
      "ai": 79,
      "ed": 80,
      "ith": 81,
      "pai": 82,
      "red": 83,
      "with": 84,
      "xt": 85,
      "text": 86,
      "context": 87,
      "paired": 88,
      "gh": 89,
      "ou": 90,
      "rela": 91,
      "rou": 92,
      "throu": 93,
      "tes": 94,
      "relates": 95,
      "through": 96,
      "cte": 97,
      "ecte": 98,
      "necte": 99,
      "via": 100,
      "connecte": 101,
      "connected": 102,
      "Relation_02": 103,
      "Relation_00": 104,
      "Alias_007": 105,
      "Alias_005": 106,
      "Alias_002": 107,
      "Alias_009": 108,
      "Alias_006": 109,
      "Alias_008": 110,
      "Alias_001": 111,
      "Alias_003": 112,
      "Alias_000": 113,
      "Alias_004": 114,
      "6_0": 115,
      "Entity_001": 116,
      "Entity_000": 117,
      "3_0": 118,
      "8_1": 119,
      "Entity_006": 120,
      "Entity_003": 121,
      "9_0": 122,
      "2_0": 123,
      "Entity_004": 124,
      "4_1": 125,
      "Entity_005": 126,
      "Entity_008": 127,
      "3_1": 128,
      "2_1": 129,
      "Entity_009": 130,
      "8_0": 131,
      "0_1": 132,
      "1_1": 133,
      "Entity_007": 134,
      "7_0": 135,
      "7_1": 136,
      "9_1": 137,
      "5_0": 138,
      "6_1": 139,
      "5_1": 140,
      "Entity_002": 141,
      "1_0": 142,
      "4_0": 143,
      "0_0": 144,
      "Relation_015": 145,
      "Relation_012": 146,
      "Relation_042": 147,
      "Relation_037": 148,
      "Relation_035": 149,
      "Relation_025": 150,
      "Relation_040": 151,
      "Relation_043": 152,
      "Relation_030": 153,
      "Relation_011": 154,
      "Relation_014": 155,
      "Relation_044": 156,
      "Relation_045": 157,
      "Relation_017": 158,
      "Relation_048": 159,
      "Relation_038": 160,
      "Relation_005": 161,
      "Relation_047": 162,
      "Relation_046": 163,
      "Relation_036": 164,
      "Relation_001": 165,
      "Relation_006": 166,
      "Relation_022": 167,
      "Relation_034": 168,
      "Relation_039": 169,
      "Relation_049": 170,
      "Relation_031": 171,
      "Relation_020": 172,
      "Relation_033": 173,
      "Relation_016": 174,
      "Relation_024": 175,
      "Relation_009": 176,
      "Relation_026": 177,
      "Relation_013": 178,
      "Relation_003": 179,
      "Relation_029": 180,
      "Relation_000": 181,
      "Relation_041": 182,
      "Relation_018": 183,
      "Relation_019": 184,
      "Relation_021": 185,
      "Relation_008": 186,
      "Relation_032": 187,
      "Relation_027": 188,
      "Relation_028": 189,
      "Relation_007": 190,
      "Relation_004": 191,
      "Relation_002": 192,
      "Relation_010": 193,
      "Relation_023": 194,
      "Alias_0054": 195,
      "Alias_0010": 196,
      "Alias_0075": 197,
      "Alias_0074": 198,
      "Alias_0070": 199,
      "Alias_0041": 200,
      "Alias_0002": 201,
      "Alias_0094": 202,
      "Alias_0080": 203,
      "Alias_0037": 204,
      "Alias_0062": 205,
      "Alias_0040": 206,
      "Alias_0020": 207,
      "Alias_0028": 208,
      "Alias_0013": 209,
      "Alias_0025": 210,
      "Alias_0026": 211,
      "Alias_0095": 212,
      "Alias_0097": 213,
      "Alias_0099": 214,
      "Alias_0064": 215,
      "Alias_0052": 216,
      "Alias_0056": 217,
      "Alias_0055": 218,
      "Alias_0060": 219,
      "Alias_0076": 220,
      "Alias_0078": 221,
      "Alias_0016": 222,
      "Alias_0019": 223,
      "Alias_0050": 224,
      "Alias_0033": 225,
      "Alias_0077": 226,
      "Alias_0051": 227,
      "Alias_0023": 228,
      "Alias_0027": 229,
      "Alias_0065": 230,
      "Alias_0081": 231,
      "Alias_0089": 232,
      "Alias_0015": 233,
      "Alias_0031": 234,
      "Alias_0001": 235,
      "Alias_0073": 236,
      "Alias_0067": 237,
      "Alias_0084": 238,
      "Alias_0085": 239,
      "Alias_0039": 240,
      "Alias_0072": 241,
      "Alias_0086": 242,
      "Alias_0003": 243,
      "Alias_0069": 244,
      "Alias_0017": 245,
      "Alias_0058": 246,
      "Alias_0091": 247,
      "Alias_0092": 248,
      "Alias_0082": 249,
      "Alias_0036": 250,
      "Alias_0038": 251,
      "Alias_0043": 252,
      "Alias_0021": 253,
      "Alias_0096": 254,
      "Alias_0098": 255,
      "Alias_0034": 256,
      "Alias_0008": 257,
      "Alias_0022": 258,
      "Alias_0061": 259,
      "Alias_0083": 260,
      "Alias_0000": 261,
      "Alias_0004": 262,
      "Alias_0066": 263,
      "Alias_0005": 264,
      "Alias_0049": 265,
      "Alias_0035": 266,
      "Alias_0057": 267,
      "Alias_0029": 268,
      "Alias_0018": 269,
      "Alias_0059": 270,
      "Alias_0024": 271,
      "Alias_0068": 272,
      "Alias_0014": 273,
      "Alias_0045": 274,
      "Alias_0090": 275,
      "Alias_0032": 276,
      "Alias_0011": 277,
      "Alias_0044": 278,
      "Alias_0087": 279,
      "Alias_0006": 280,
      "Alias_0007": 281,
      "Alias_0088": 282,
      "Alias_0046": 283,
      "Alias_0047": 284,
      "Alias_0071": 285,
      "Alias_0053": 286,
      "Alias_0030": 287,
      "Alias_0048": 288,
      "Alias_0009": 289,
      "Alias_0063": 290,
      "Alias_0042": 291,
      "Alias_0079": 292,
      "Alias_0093": 293,
      "Alias_0012": 294,
      "24": 295,
      "52": 296,
      "95": 297,
      "Entity_0041": 298,
      "66": 299,
      "Entity_0018": 300,
      "50": 301,
      "09": 302,
      "53": 303,
      "55": 304,
      "Entity_0053": 305,
      "79": 306,
      "40": 307,
      "Entity_0001": 308,
      "05": 309,
      "27": 310,
      "67": 311,
      "Entity_0011": 312,
      "93": 313,
      "98": 314,
      "Entity_0098": 315,
      "29": 316,
      "68": 317,
      "73": 318,
      "02": 319,
      "64": 320,
      "Entity_0083": 321,
      "Entity_0023": 322,
      "00": 323,
      "44": 324,
      "22": 325,
      "57": 326,
      "70": 327,
      "72": 328,
      "97": 329,
      "Entity_0091": 330,
      "06": 331,
      "20": 332,
      "41": 333,
      "42": 334,
      "58": 335,
      "71": 336,
      "Entity_0048": 337,
      "Entity_0058": 338,
      "26": 339,
      "28": 340,
      "54": 341,
      "62": 342,
      "Entity_0003": 343,
      "Entity_0061": 344,
      "Entity_0068": 345,
      "Entity_0021": 346,
      "07": 347,
      "46": 348,
      "51": 349,
      "99": 350,
      "Entity_0008": 351,
      "Entity_0063": 352,
      "Entity_0093": 353,
      "48": 354,
      "63": 355,
      "76": 356,
      "Entity_0031": 357,
      "Entity_0038": 358,
      "01": 359,
      "25": 360,
      "65": 361,
      "75": 362,
      "08": 363,
      "49": 364,
      "61": 365,
      "74": 366,
      "77": 367,
      "Entity_0013": 368,
      "Entity_0033": 369,
      "Entity_0043": 370,
      "Entity_0073": 371,
      "21": 372,
      "56": 373,
      "Entity_0088": 374,
      "43": 375,
      "69": 376,
      "Entity_0051": 377,
      "Entity_0081": 378,
      "Entity_0071": 379,
      "94": 380,
      "45": 381,
      "03": 382,
      "23": 383,
      "04": 384,
      "60": 385,
      "90": 386,
      "92": 387,
      "96": 388,
      "Entity_0028": 389,
      "91": 390,
      "47": 391,
      "78": 392,
      "Entity_0078": 393,
      "59": 394,
      "Entity_00895": 395,
      "Alias_00766_0": 396,
      "Entity_00607": 397,
      "Entity_00795": 398,
      "Alias_00026_0": 399,
      "Alias_00139_0": 400,
      "Alias_00256_1": 401,
      "Alias_00688_1": 402,
      "Entity_00538": 403,
      "Entity_00012": 404,
      "Entity_00029": 405,
      "Entity_00555": 406,
      "Entity_00824": 407,
      "Entity_00240": 408,
      "Entity_00254": 409,
      "Alias_00542_0": 410,
      "Alias_00741_0": 411,
      "Alias_00410_0": 412,
      "Alias_00943_0": 413,
      "Alias_00133_0": 414,
      "Alias_00263_0": 415,
      "Alias_00263_1": 416,
      "Alias_00955_1": 417,
      "Alias_00970_1": 418,
      "Alias_00199_0": 419,
      "Alias_00862_0": 420,
      "Alias_00490_1": 421,
      "Entity_00412": 422,
      "Entity_00676": 423,
      "Entity_00326": 424,
      "Entity_00579": 425,
      "Entity_00874": 426,
      "Entity_00952": 427,
      "Entity_00998": 428,
      "Entity_00742": 429,
      "Alias_00100_0": 430,
      "Alias_00740_1": 431,
      "Alias_00416_0": 432,
      "Alias_00023_0": 433,
      "Alias_00402_0": 434,
      "Alias_00268_0": 435,
      "Alias_00265_0": 436,
      "Alias_00645_0": 437,
      "Alias_00527_1": 438,
      "Alias_00781_1": 439,
      "Alias_00509_0": 440,
      "Alias_00273_0": 441,
      "Alias_00657_1": 442,
      "Alias_00674_0": 443,
      "Alias_00858_1": 444,
      "Alias_00586_1": 445,
      "Alias_00340_1": 446,
      "Alias_00002_0": 447,
      "Alias_00043_0": 448,
      "Alias_00292_0": 449,
      "Alias_00902_0": 450,
      "Entity_00539": 451,
      "Entity_00983": 452,
      "Entity_00237": 453,
      "Entity_00610": 454,
      "Entity_00632": 455,
      "Entity_00152": 456,
      "Entity_00153": 457,
      "Entity_00164": 458,
      "Entity_00157": 459,
      "Entity_00026": 460,
      "Entity_00049": 461,
      "Entity_00624": 462,
      "Entity_00666": 463,
      "Entity_00650": 464,
      "Entity_00309": 465,
      "Entity_00367": 466,
      "Entity_00502": 467,
      "Entity_00523": 468,
      "Entity_00809": 469,
      "Entity_00853": 470,
      "Entity_00822": 471,
      "Entity_00962": 472,
      "Entity_00921": 473,
      "Entity_00706": 474,
      "Alias_00548_0": 475,
      "Alias_00547_0": 476,
      "Alias_00102_0": 477,
      "Alias_00750_1": 478,
      "Alias_00746_1": 479,
      "Alias_00707_0": 480,
      "Alias_00025_0": 481,
      "Alias_00949_0": 482,
      "Alias_00949_1": 483,
      "Alias_00803_0": 484,
      "Alias_00801_0": 485,
      "Alias_00374_1": 486,
      "Alias_00623_0": 487,
      "Alias_00206_0": 488,
      "Alias_00259_1": 489,
      "Alias_00264_1": 490,
      "Alias_00998_1": 491,
      "Alias_00990_0": 492,
      "Alias_00767_1": 493,
      "Alias_00786_0": 494,
      "Alias_00164_0": 495,
      "Alias_00191_0": 496,
      "Alias_00772_0": 497,
      "Alias_00515_0": 498,
      "Alias_00236_0": 499,
      "Alias_00011_0": 500,
      "Alias_00843_0": 501,
      "Alias_00847_0": 502,
      "Alias_00398_1": 503,
      "Alias_00395_0": 504,
      "Alias_00729_0": 505,
      "Alias_00031_0": 506,
      "Alias_00582_0": 507,
      "Alias_00915_1": 508,
      "Alias_00386_0": 509,
      "Alias_00388_0": 510,
      "Alias_00347_0": 511,
      "Alias_00619_0": 512,
      "Alias_00298_0": 513,
      "Alias_00188_1": 514,
      "Alias_00596_0": 515,
      "Alias_00148_0": 516,
      "Alias_00445_0": 517,
      "Alias_00073_1": 518,
      "Alias_00884_0": 519,
      "Entity_00180": 520,
      "Entity_00187": 521,
      "Entity_00089": 522,
      "Entity_00819": 523,
      "Entity_00716": 524,
      "Entity_00155": 525,
      "Entity_00105": 526,
      "Entity_00199": 527,
      "Entity_00024": 528,
      "Entity_00002": 529,
      "Entity_00646": 530,
      "Entity_00692": 531,
      "Entity_00324": 532,
      "Entity_00352": 533,
      "Entity_00355": 534,
      "Entity_00373": 535,
      "Entity_00446": 536,
      "Entity_00564": 537,
      "Entity_00563": 538,
      "Entity_00850": 539,
      "Entity_00848": 540,
      "Entity_00995": 541,
      "Entity_00979": 542,
      "Entity_00727": 543,
      "Entity_00757": 544,
      "Entity_00728": 545,
      "Entity_00224": 546,
      "Entity_00266": 547,
      "Alias_00547_1": 548,
      "Alias_00545_1": 549,
      "Alias_00109_0": 550,
      "Alias_00107_0": 551,
      "Alias_00107_1": 552,
      "Alias_00759_0": 553,
      "Alias_00750_0": 554,
      "Alias_00747_0": 555,
      "Alias_00702_1": 556,
      "Alias_00701_1": 557,
      "Alias_00419_1": 558,
      "Alias_00806_0": 559,
      "Alias_00807_0": 560,
      "Alias_00371_1": 561,
      "Alias_00375_1": 562,
      "Alias_00203_0": 563,
      "Alias_00283_1": 564,
      "Alias_00959_1": 565,
      "Alias_00971_1": 566,
      "Alias_00644_1": 567,
      "Alias_00646_1": 568,
      "Alias_00569_0": 569,
      "Alias_00567_1": 570,
      "Alias_00788_0": 571,
      "Alias_00789_1": 572,
      "Alias_00169_0": 573,
      "Alias_00165_1": 574,
      "Alias_00506_0": 575,
      "Alias_00503_1": 576,
      "Alias_00337_1": 577,
      "Alias_00517_0": 578,
      "Alias_00515_1": 579,
      "Alias_00237_1": 580,
      "Alias_00231_0": 581,
      "Alias_00819_0": 582,
      "Alias_00811_0": 583,
      "Alias_00153_1": 584,
      "Alias_00151_0": 585,
      "Alias_00728_0": 586,
      "Alias_00720_1": 587,
      "Alias_00695_0": 588,
      "Alias_00171_0": 589,
      "Alias_00916_0": 590,
      "Alias_00913_1": 591,
      "Alias_00929_1": 592,
      "Alias_00925_1": 593,
      "Alias_00826_0": 594,
      "Alias_00369_0": 595,
      "Alias_00364_1": 596,
      "Alias_00365_1": 597,
      "Alias_00380_1": 598,
      "Alias_00389_1": 599,
      "Alias_00964_1": 600,
      "Alias_00963_1": 601,
      "Alias_00980_0": 602,
      "Alias_00223_0": 603,
      "Alias_00839_0": 604,
      "Alias_00660_1": 605,
      "Alias_00492_1": 606,
      "Alias_00358_1": 607,
      "Alias_00574_0": 608,
      "Alias_00297_1": 609,
      "Alias_00453_0": 610,
      "Alias_00904_0": 611,
      "Alias_00075_1": 612,
      "Alias_00461_1": 613,
      "Alias_00479_0": 614,
      "Alias_00718_1": 615,
      "Alias_00634_0": 616,
      "Entity_00415": 617,
      "Entity_00186": 618,
      "Entity_00915": 619,
      "Entity_00918": 620,
      "Entity_00032": 621,
      "Entity_00216": 622,
      "Entity_00931": 623,
      "Entity_00316": 624,
      "Entity_00139": 625,
      "Entity_00734": 626,
      "Entity_00888": 627,
      "Entity_00286": 628,
      "Entity_00168": 629,
      "Entity_00148": 630,
      "Entity_00101": 631,
      "Entity_00143": 632,
      "Entity_00052": 633,
      "Entity_00044": 634,
      "Entity_00072": 635,
      "Entity_00006": 636,
      "Entity_00051": 637,
      "Entity_00004": 638,
      "Entity_00092": 639,
      "Entity_00695": 640,
      "Entity_00605": 641,
      "Entity_00668": 642,
      "Entity_00691": 643,
      "Entity_00366": 644,
      "Entity_00393": 645,
      "Entity_00398": 646,
      "Entity_00329": 647,
      "Entity_00495": 648,
      "Entity_00450": 649,
      "Entity_00453": 650,
      "Entity_00479": 651,
      "Entity_00473": 652,
      "Entity_00465": 653,
      "Entity_00494": 654,
      "Entity_00573": 655,
      "Entity_00522": 656,
      "Entity_00525": 657,
      "Entity_00867": 658,
      "Entity_00893": 659,
      "Entity_00999": 660,
      "Entity_00963": 661,
      "Entity_00755": 662,
      "Entity_00740": 663,
      "Entity_00705": 664,
      "Entity_00702": 665,
      "Entity_00758": 666,
      "Entity_00252": 667,
      "Entity_00250": 668,
      "Entity_00244": 669,
      "Entity_00271": 670,
      "Entity_00201": 671,
      "Entity_00277": 672,
      "Entity_00269": 673,
      "Alias_00542_1": 674,
      "Alias_00105_1": 675,
      "Alias_00758_1": 676,
      "Alias_00754_1": 677,
      "Alias_00757_0": 678,
      "Alias_00757_1": 679,
      "Alias_00704_1": 680,
      "Alias_00414_1": 681,
      "Alias_00417_1": 682,
      "Alias_00024_1": 683,
      "Alias_00802_1": 684,
      "Alias_00376_0": 685,
      "Alias_00378_1": 686,
      "Alias_00621_1": 687,
      "Alias_00627_1": 688,
      "Alias_00626_1": 689,
      "Alias_00408_1": 690,
      "Alias_00404_1": 691,
      "Alias_00403_1": 692,
      "Alias_00407_1": 693,
      "Alias_00404_0": 694,
      "Alias_00204_1": 695,
      "Alias_00205_0": 696,
      "Alias_00282_0": 697,
      "Alias_00288_0": 698,
      "Alias_00280_1": 699,
      "Alias_00287_0": 700,
      "Alias_00136_0": 701,
      "Alias_00136_1": 702,
      "Alias_00254_0": 703,
      "Alias_00956_1": 704,
      "Alias_00972_1": 705,
      "Alias_00994_1": 706,
      "Alias_00993_1": 707,
      "Alias_00526_0": 708,
      "Alias_00525_0": 709,
      "Alias_00568_1": 710,
      "Alias_00563_1": 711,
      "Alias_00567_0": 712,
      "Alias_00556_1": 713,
      "Alias_00606_0": 714,
      "Alias_00608_1": 715,
      "Alias_00602_0": 716,
      "Alias_00606_1": 717,
      "Alias_00605_1": 718,
      "Alias_00601_0": 719,
      "Alias_00762_1": 720,
      "Alias_00769_1": 721,
      "Alias_00198_0": 722,
      "Alias_00199_1": 723,
      "Alias_00195_0": 724,
      "Alias_00501_1": 725,
      "Alias_00333_0": 726,
      "Alias_00334_0": 727,
      "Alias_00776_1": 728,
      "Alias_00516_0": 729,
      "Alias_00234_1": 730,
      "Alias_00275_0": 731,
      "Alias_00274_0": 732,
      "Alias_00652_0": 733,
      "Alias_00813_1": 734,
      "Alias_00819_1": 735,
      "Alias_00892_1": 736,
      "Alias_00898_0": 737,
      "Alias_00156_0": 738,
      "Alias_00319_0": 739,
      "Alias_00017_1": 740,
      "Alias_00736_0": 741,
      "Alias_00731_1": 742,
      "Alias_00731_0": 743,
      "Alias_00679_0": 744,
      "Alias_00846_0": 745,
      "Alias_00840_0": 746,
      "Alias_00854_0": 747,
      "Alias_00396_1": 748,
      "Alias_00038_0": 749,
      "Alias_00694_1": 750,
      "Alias_00173_0": 751,
      "Alias_00170_1": 752,
      "Alias_00170_0": 753,
      "Alias_00580_1": 754,
      "Alias_00926_0": 755,
      "Alias_00828_1": 756,
      "Alias_00824_1": 757,
      "Alias_00828_0": 758,
      "Alias_00384_1": 759,
      "Alias_00387_1": 760,
      "Alias_00434_1": 761,
      "Alias_00431_0": 762,
      "Alias_00212_1": 763,
      "Alias_00214_0": 764,
      "Alias_00968_1": 765,
      "Alias_00341_1": 766,
      "Alias_00082_1": 767,
      "Alias_00221_1": 768,
      "Alias_00611_1": 769,
      "Alias_00830_0": 770,
      "Alias_00002_1": 771,
      "Alias_00042_1": 772,
      "Alias_00664_1": 773,
      "Alias_00663_1": 774,
      "Alias_00058_1": 775,
      "Alias_00052_1": 776,
      "Alias_00357_0": 777,
      "Alias_00575_0": 778,
      "Alias_00298_1": 779,
      "Alias_00295_1": 780,
      "Alias_00187_1": 781,
      "Alias_00598_0": 782,
      "Alias_00686_0": 783,
      "Alias_00450_1": 784,
      "Alias_00906_0": 785,
      "Alias_00323_1": 786,
      "Alias_00322_1": 787,
      "Alias_00112_1": 788,
      "Alias_00115_0": 789,
      "Alias_00443_1": 790,
      "Alias_00875_1": 791,
      "Alias_00460_1": 792,
      "Alias_00719_0": 793,
      "Alias_00532_1": 794,
      "Alias_00483_0": 795,
      "Alias_00487_0": 796,
      "Alias_00096_0": 797,
      "Alias_00637_0": 798,
      "Alias_00423_0": 799,
      "Alias_00932_0": 800,
      "Alias_00124_0": 801,
      "Entity_00413": 802,
      "Entity_00416": 803,
      "Entity_00185": 804,
      "Entity_00534": 805,
      "Entity_00014": 806,
      "Entity_00114": 807,
      "Entity_00116": 808,
      "Entity_00830": 809,
      "Entity_00838": 810,
      "Entity_00484": 811,
      "Entity_00580": 812,
      "Entity_00684": 813,
      "Entity_00686": 814,
      "Entity_00212": 815,
      "Entity_00088": 816,
      "Entity_00932": 817,
      "Entity_00380": 818,
      "Entity_00339": 819,
      "Entity_00437": 820,
      "Entity_00882": 821,
      "Entity_00513": 822,
      "Entity_00517": 823,
      "Entity_00811": 824,
      "Entity_00124": 825,
      "Entity_00166": 826,
      "Entity_00150": 827,
      "Entity_00140": 828,
      "Entity_00129": 829,
      "Entity_00144": 830,
      "Entity_00197": 831,
      "Entity_00141": 832,
      "Entity_00154": 833,
      "Entity_00177": 834,
      "Entity_00121": 835,
      "Entity_00169": 836,
      "Entity_00027": 837,
      "Entity_00068": 838,
      "Entity_00020": 839,
      "Entity_00042": 840,
      "Entity_00071": 841,
      "Entity_00028": 842,
      "Entity_00076": 843,
      "Entity_00001": 844,
      "Entity_00065": 845,
      "Entity_00096": 846,
      "Entity_00670": 847,
      "Entity_00697": 848,
      "Entity_00606": 849,
      "Entity_00671": 850,
      "Entity_00340": 851,
      "Entity_00344": 852,
      "Entity_00357": 853,
      "Entity_00370": 854,
      "Entity_00358": 855,
      "Entity_00361": 856,
      "Entity_00394": 857,
      "Entity_00427": 858,
      "Entity_00467": 859,
      "Entity_00493": 860,
      "Entity_00472": 861,
      "Entity_00441": 862,
      "Entity_00471": 863,
      "Entity_00401": 864,
      "Entity_00449": 865,
      "Entity_00421": 866,
      "Entity_00509": 867,
      "Entity_00593": 868,
      "Entity_00546": 869,
      "Entity_00590": 870,
      "Entity_00591": 871,
      "Entity_00827": 872,
      "Entity_00868": 873,
      "Entity_00873": 874,
      "Entity_00800": 875,
      "Entity_00862": 876,
      "Entity_00851": 877,
      "Entity_00825": 878,
      "Entity_00875": 879,
      "Entity_00845": 880,
      "Entity_00966": 881,
      "Entity_00909": 882,
      "Entity_00968": 883,
      "Entity_00902": 884,
      "Entity_00900": 885,
      "Entity_00972": 886,
      "Entity_00906": 887,
      "Entity_00941": 888,
      "Entity_00954": 889,
      "Entity_00959": 890,
      "Entity_00750": 891,
      "Entity_00709": 892,
      "Entity_00770": 893,
      "Entity_00797": 894,
      "Entity_00765": 895,
      "Entity_00708": 896,
      "Entity_00279": 897,
      "Entity_00298": 898,
      "Entity_00223": 899,
      "Entity_00292": 900,
      "Alias_00543_0": 901,
      "Alias_00543_1": 902,
      "Alias_00546_1": 903,
      "Alias_00103_0": 904,
      "Alias_00102_1": 905,
      "Alias_00100_1": 906,
      "Alias_00753_0": 907,
      "Alias_00751_1": 908,
      "Alias_00741_1": 909,
      "Alias_00749_1": 910,
      "Alias_00709_0": 911,
      "Alias_00705_1": 912,
      "Alias_00701_0": 913,
      "Alias_00412_0": 914,
      "Alias_00027_1": 915,
      "Alias_00026_1": 916,
      "Alias_00945_0": 917,
      "Alias_00808_0": 918,
      "Alias_00809_1": 919,
      "Alias_00622_0": 920,
      "Alias_00622_1": 921,
      "Alias_00620_0": 922,
      "Alias_00406_1": 923,
      "Alias_00202_1": 924,
      "Alias_00209_1": 925,
      "Alias_00286_0": 926,
      "Alias_00285_1": 927,
      "Alias_00134_1": 928,
      "Alias_00135_0": 929,
      "Alias_00256_0": 930,
      "Alias_00258_1": 931,
      "Alias_00250_1": 932,
      "Alias_00257_1": 933,
      "Alias_00957_1": 934,
      "Alias_00972_0": 935,
      "Alias_00978_0": 936,
      "Alias_00977_0": 937,
      "Alias_00996_1": 938,
      "Alias_00649_0": 939,
      "Alias_00641_1": 940,
      "Alias_00647_0": 941,
      "Alias_00528_1": 942,
      "Alias_00522_1": 943,
      "Alias_00520_1": 944,
      "Alias_00521_0": 945,
      "Alias_00569_1": 946,
      "Alias_00565_0": 947,
      "Alias_00556_0": 948,
      "Alias_00553_1": 949,
      "Alias_00762_0": 950,
      "Alias_00784_1": 951,
      "Alias_00780_0": 952,
      "Alias_00196_0": 953,
      "Alias_00194_1": 954,
      "Alias_00191_1": 955,
      "Alias_00500_0": 956,
      "Alias_00334_1": 957,
      "Alias_00514_1": 958,
      "Alias_00511_1": 959,
      "Alias_00236_1": 960,
      "Alias_00235_1": 961,
      "Alias_00270_0": 962,
      "Alias_00654_1": 963,
      "Alias_00653_1": 964,
      "Alias_00650_1": 965,
      "Alias_00655_1": 966,
      "Alias_00812_0": 967,
      "Alias_00814_0": 968,
      "Alias_00896_0": 969,
      "Alias_00893_0": 970,
      "Alias_00894_1": 971,
      "Alias_00891_0": 972,
      "Alias_00152_1": 973,
      "Alias_00151_1": 974,
      "Alias_00318_1": 975,
      "Alias_00312_1": 976,
      "Alias_00318_0": 977,
      "Alias_00314_0": 978,
      "Alias_00733_1": 979,
      "Alias_00730_1": 980,
      "Alias_00676_0": 981,
      "Alias_00844_0": 982,
      "Alias_00856_0": 983,
      "Alias_00858_0": 984,
      "Alias_00396_0": 985,
      "Alias_00398_0": 986,
      "Alias_00724_1": 987,
      "Alias_00863_1": 988,
      "Alias_00036_0": 989,
      "Alias_00032_0": 990,
      "Alias_00033_1": 991,
      "Alias_00697_1": 992,
      "Alias_00690_0": 993,
      "Alias_00176_0": 994,
      "Alias_00178_1": 995,
      "Alias_00585_0": 996,
      "Alias_00581_0": 997,
      "Alias_00923_1": 998,
      "Alias_00928_0": 999,
      "Alias_00926_1": 1000,
      "Alias_00921_0": 1001,
      "Alias_00362_1": 1002,
      "Alias_00438_1": 1003,
      "Alias_00431_1": 1004,
      "Alias_00219_0": 1005,
      "Alias_00210_0": 1006,
      "Alias_00963_0": 1007,
      "Alias_00964_0": 1008,
      "Alias_00983_0": 1009,
      "Alias_00986_1": 1010,
      "Alias_00984_0": 1011,
      "Alias_00082_0": 1012,
      "Alias_00087_0": 1013,
      "Alias_00837_1": 1014,
      "Alias_00007_1": 1015,
      "Alias_00006_1": 1016,
      "Alias_00048_1": 1017,
      "Alias_00048_0": 1018,
      "Alias_00668_1": 1019,
      "Alias_00051_1": 1020,
      "Alias_00057_0": 1021,
      "Alias_00054_0": 1022,
      "Alias_00498_1": 1023,
      "Alias_00491_1": 1024,
      "Alias_00359_1": 1025,
      "Alias_00355_0": 1026,
      "Alias_00570_1": 1027,
      "Alias_00185_0": 1028,
      "Alias_00248_1": 1029,
      "Alias_00247_1": 1030,
      "Alias_00244_0": 1031,
      "Alias_00456_0": 1032,
      "Alias_00458_1": 1033,
      "Alias_00454_1": 1034,
      "Alias_00450_0": 1035,
      "Alias_00908_1": 1036,
      "Alias_00322_0": 1037,
      "Alias_00111_0": 1038,
      "Alias_00449_0": 1039,
      "Alias_00442_0": 1040,
      "Alias_00448_0": 1041,
      "Alias_00066_0": 1042,
      "Alias_00073_0": 1043,
      "Alias_00889_0": 1044,
      "Alias_00883_1": 1045,
      "Alias_00885_1": 1046,
      "Alias_00474_1": 1047,
      "Alias_00478_0": 1048,
      "Alias_00712_1": 1049,
      "Alias_00716_1": 1050,
      "Alias_00715_1": 1051,
      "Alias_00537_1": 1052,
      "Alias_00536_1": 1053,
      "Alias_00303_0": 1054,
      "Alias_00309_0": 1055,
      "Alias_00305_1": 1056,
      "Alias_00304_0": 1057,
      "Alias_00484_1": 1058,
      "Alias_00488_0": 1059,
      "Alias_00098_1": 1060,
      "Alias_00097_1": 1061,
      "Alias_00793_0": 1062,
      "Alias_00798_0": 1063,
      "Alias_00791_1": 1064,
      "Alias_00932_1": 1065,
      "Alias_00121_1": 1066,
      "Entity_00418": 1067,
      "Entity_00533": 1068,
      "Entity_00019": 1069,
      "Entity_00119": 1070,
      "Entity_00980": 1071,
      "Entity_00982": 1072,
      "Entity_00988": 1073,
      "Entity_00832": 1074,
      "Entity_00834": 1075,
      "Entity_00238": 1076,
      "Entity_00914": 1077,
      "Entity_00483": 1078,
      "Entity_00615": 1079,
      "Entity_00619": 1080,
      "Entity_00213": 1081,
      "Entity_00086": 1082,
      "Entity_00636": 1083,
      "Entity_00637": 1084,
      "Entity_00930": 1085,
      "Entity_00138": 1086,
      "Entity_00334": 1087,
      "Entity_00336": 1088,
      "Entity_00432": 1089,
      "Entity_00731": 1090,
      "Entity_00735": 1091,
      "Entity_00813": 1092,
      "Entity_00179": 1093,
      "Entity_00198": 1094,
      "Entity_00172": 1095,
      "Entity_00128": 1096,
      "Entity_00165": 1097,
      "Entity_00066": 1098,
      "Entity_00040": 1099,
      "Entity_00067": 1100,
      "Entity_00057": 1101,
      "Entity_00097": 1102,
      "Entity_00075": 1103,
      "Entity_00056": 1104,
      "Entity_00043": 1105,
      "Entity_00078": 1106,
      "Entity_00609": 1107,
      "Entity_00679": 1108,
      "Entity_00693": 1109,
      "Entity_00664": 1110,
      "Entity_00620": 1111,
      "Entity_00641": 1112,
      "Entity_00658": 1113,
      "Entity_00663": 1114,
      "Entity_00603": 1115,
      "Entity_00350": 1116,
      "Entity_00353": 1117,
      "Entity_00364": 1118,
      "Entity_00300": 1119,
      "Entity_00322": 1120,
      "Entity_00306": 1121,
      "Entity_00320": 1122,
      "Entity_00307": 1123,
      "Entity_00351": 1124,
      "Entity_00375": 1125,
      "Entity_00321": 1126,
      "Entity_00356": 1127,
      "Entity_00303": 1128,
      "Entity_00452": 1129,
      "Entity_00440": 1130,
      "Entity_00405": 1131,
      "Entity_00468": 1132,
      "Entity_00426": 1133,
      "Entity_00454": 1134,
      "Entity_00448": 1135,
      "Entity_00477": 1136,
      "Entity_00469": 1137,
      "Entity_00460": 1138,
      "Entity_00550": 1139,
      "Entity_00529": 1140,
      "Entity_00500": 1141,
      "Entity_00570": 1142,
      "Entity_00597": 1143,
      "Entity_00558": 1144,
      "Entity_00599": 1145,
      "Entity_00521": 1146,
      "Entity_00855": 1147,
      "Entity_00840": 1148,
      "Entity_00864": 1149,
      "Entity_00820": 1150,
      "Entity_00849": 1151,
      "Entity_00861": 1152,
      "Entity_00856": 1153,
      "Entity_00890": 1154,
      "Entity_00924": 1155,
      "Entity_00940": 1156,
      "Entity_00927": 1157,
      "Entity_00957": 1158,
      "Entity_00949": 1159,
      "Entity_00974": 1160,
      "Entity_00904": 1161,
      "Entity_00960": 1162,
      "Entity_00947": 1163,
      "Entity_00753": 1164,
      "Entity_00779": 1165,
      "Entity_00767": 1166,
      "Entity_00729": 1167,
      "Entity_00722": 1168,
      "Entity_00748": 1169,
      "Entity_00743": 1170,
      "Entity_00295": 1171,
      "Entity_00227": 1172,
      "Entity_00270": 1173,
      "Entity_00297": 1174,
      "Entity_00228": 1175,
      "Entity_00274": 1176,
      "Entity_00256": 1177,
      "Alias_00106_0": 1178,
      "Alias_00108_1": 1179,
      "Alias_00759_1": 1180,
      "Alias_00751_0": 1181,
      "Alias_00743_0": 1182,
      "Alias_00742_1": 1183,
      "Alias_00747_1": 1184,
      "Alias_00703_1": 1185,
      "Alias_00700_1": 1186,
      "Alias_00709_1": 1187,
      "Alias_00700_0": 1188,
      "Alias_00418_1": 1189,
      "Alias_00411_1": 1190,
      "Alias_00416_1": 1191,
      "Alias_00022_0": 1192,
      "Alias_00021_0": 1193,
      "Alias_00943_1": 1194,
      "Alias_00942_1": 1195,
      "Alias_00809_0": 1196,
      "Alias_00372_0": 1197,
      "Alias_00373_1": 1198,
      "Alias_00370_1": 1199,
      "Alias_00376_1": 1200,
      "Alias_00370_0": 1201,
      "Alias_00628_1": 1202,
      "Alias_00629_1": 1203,
      "Alias_00621_0": 1204,
      "Alias_00209_0": 1205,
      "Alias_00201_1": 1206,
      "Alias_00200_0": 1207,
      "Alias_00282_1": 1208,
      "Alias_00289_1": 1209,
      "Alias_00131_1": 1210,
      "Alias_00253_0": 1211,
      "Alias_00253_1": 1212,
      "Alias_00262_1": 1213,
      "Alias_00267_1": 1214,
      "Alias_00956_0": 1215,
      "Alias_00953_0": 1216,
      "Alias_00953_1": 1217,
      "Alias_00951_0": 1218,
      "Alias_00979_1": 1219,
      "Alias_00999_0": 1220,
      "Alias_00991_0": 1221,
      "Alias_00640_1": 1222,
      "Alias_00644_0": 1223,
      "Alias_00640_0": 1224,
      "Alias_00528_0": 1225,
      "Alias_00521_1": 1226,
      "Alias_00553_0": 1227,
      "Alias_00554_1": 1228,
      "Alias_00558_0": 1229,
      "Alias_00559_1": 1230,
      "Alias_00555_1": 1231,
      "Alias_00554_0": 1232,
      "Alias_00603_1": 1233,
      "Alias_00608_0": 1234,
      "Alias_00764_1": 1235,
      "Alias_00783_0": 1236,
      "Alias_00780_1": 1237,
      "Alias_00787_0": 1238,
      "Alias_00786_1": 1239,
      "Alias_00163_0": 1240,
      "Alias_00161_0": 1241,
      "Alias_00193_1": 1242,
      "Alias_00331_1": 1243,
      "Alias_00335_0": 1244,
      "Alias_00776_0": 1245,
      "Alias_00774_1": 1246,
      "Alias_00777_0": 1247,
      "Alias_00775_0": 1248,
      "Alias_00771_0": 1249,
      "Alias_00514_0": 1250,
      "Alias_00510_0": 1251,
      "Alias_00239_0": 1252,
      "Alias_00234_0": 1253,
      "Alias_00230_0": 1254,
      "Alias_00278_1": 1255,
      "Alias_00278_0": 1256,
      "Alias_00271_0": 1257,
      "Alias_00656_0": 1258,
      "Alias_00657_0": 1259,
      "Alias_00814_1": 1260,
      "Alias_00811_1": 1261,
      "Alias_00898_1": 1262,
      "Alias_00893_1": 1263,
      "Alias_00899_1": 1264,
      "Alias_00152_0": 1265,
      "Alias_00158_0": 1266,
      "Alias_00159_1": 1267,
      "Alias_00312_0": 1268,
      "Alias_00314_1": 1269,
      "Alias_00313_1": 1270,
      "Alias_00310_0": 1271,
      "Alias_00019_0": 1272,
      "Alias_00018_0": 1273,
      "Alias_00017_0": 1274,
      "Alias_00015_1": 1275,
      "Alias_00735_0": 1276,
      "Alias_00735_1": 1277,
      "Alias_00678_1": 1278,
      "Alias_00675_0": 1279,
      "Alias_00671_0": 1280,
      "Alias_00670_0": 1281,
      "Alias_00842_0": 1282,
      "Alias_00842_1": 1283,
      "Alias_00852_0": 1284,
      "Alias_00854_1": 1285,
      "Alias_00851_1": 1286,
      "Alias_00394_0": 1287,
      "Alias_00723_0": 1288,
      "Alias_00729_1": 1289,
      "Alias_00724_0": 1290,
      "Alias_00862_1": 1291,
      "Alias_00868_0": 1292,
      "Alias_00860_1": 1293,
      "Alias_00867_0": 1294,
      "Alias_00866_1": 1295,
      "Alias_00031_1": 1296,
      "Alias_00037_1": 1297,
      "Alias_00039_1": 1298,
      "Alias_00692_1": 1299,
      "Alias_00695_1": 1300,
      "Alias_00174_1": 1301,
      "Alias_00173_1": 1302,
      "Alias_00584_0": 1303,
      "Alias_00913_0": 1304,
      "Alias_00916_1": 1305,
      "Alias_00910_0": 1306,
      "Alias_00928_1": 1307,
      "Alias_00822_1": 1308,
      "Alias_00821_1": 1309,
      "Alias_00369_1": 1310,
      "Alias_00382_1": 1311,
      "Alias_00387_0": 1312,
      "Alias_00384_0": 1313,
      "Alias_00436_0": 1314,
      "Alias_00432_0": 1315,
      "Alias_00430_0": 1316,
      "Alias_00218_1": 1317,
      "Alias_00212_0": 1318,
      "Alias_00962_0": 1319,
      "Alias_00962_1": 1320,
      "Alias_00988_0": 1321,
      "Alias_00981_1": 1322,
      "Alias_00987_1": 1323,
      "Alias_00989_1": 1324,
      "Alias_00344_1": 1325,
      "Alias_00340_0": 1326,
      "Alias_00083_0": 1327,
      "Alias_00084_1": 1328,
      "Alias_00085_0": 1329,
      "Alias_00081_0": 1330,
      "Alias_00222_0": 1331,
      "Alias_00222_1": 1332,
      "Alias_00220_1": 1333,
      "Alias_00225_1": 1334,
      "Alias_00221_0": 1335,
      "Alias_00612_0": 1336,
      "Alias_00614_1": 1337,
      "Alias_00612_1": 1338,
      "Alias_00619_1": 1339,
      "Alias_00611_0": 1340,
      "Alias_00830_1": 1341,
      "Alias_00003_1": 1342,
      "Alias_00046_0": 1343,
      "Alias_00040_1": 1344,
      "Alias_00041_1": 1345,
      "Alias_00047_0": 1346,
      "Alias_00046_1": 1347,
      "Alias_00666_0": 1348,
      "Alias_00669_1": 1349,
      "Alias_00666_1": 1350,
      "Alias_00056_0": 1351,
      "Alias_00059_1": 1352,
      "Alias_00498_0": 1353,
      "Alias_00491_0": 1354,
      "Alias_00352_0": 1355,
      "Alias_00356_1": 1356,
      "Alias_00355_1": 1357,
      "Alias_00576_0": 1358,
      "Alias_00578_1": 1359,
      "Alias_00573_1": 1360,
      "Alias_00571_1": 1361,
      "Alias_00576_1": 1362,
      "Alias_00570_0": 1363,
      "Alias_00182_1": 1364,
      "Alias_00187_0": 1365,
      "Alias_00189_1": 1366,
      "Alias_00599_0": 1367,
      "Alias_00591_1": 1368,
      "Alias_00591_0": 1369,
      "Alias_00247_0": 1370,
      "Alias_00245_0": 1371,
      "Alias_00241_0": 1372,
      "Alias_00687_0": 1373,
      "Alias_00685_0": 1374,
      "Alias_00685_1": 1375,
      "Alias_00143_0": 1376,
      "Alias_00148_1": 1377,
      "Alias_00146_1": 1378,
      "Alias_00145_1": 1379,
      "Alias_00141_0": 1380,
      "Alias_00455_1": 1381,
      "Alias_00903_1": 1382,
      "Alias_00905_1": 1383,
      "Alias_00324_0": 1384,
      "Alias_00116_0": 1385,
      "Alias_00118_0": 1386,
      "Alias_00116_1": 1387,
      "Alias_00873_0": 1388,
      "Alias_00872_0": 1389,
      "Alias_00877_0": 1390,
      "Alias_00877_1": 1391,
      "Alias_00874_0": 1392,
      "Alias_00063_0": 1393,
      "Alias_00067_1": 1394,
      "Alias_00065_0": 1395,
      "Alias_00065_1": 1396,
      "Alias_00060_0": 1397,
      "Alias_00071_1": 1398,
      "Alias_00070_0": 1399,
      "Alias_00466_0": 1400,
      "Alias_00463_1": 1401,
      "Alias_00465_1": 1402,
      "Alias_00460_0": 1403,
      "Alias_00476_1": 1404,
      "Alias_00470_0": 1405,
      "Alias_00539_0": 1406,
      "Alias_00539_1": 1407,
      "Alias_00303_1": 1408,
      "Alias_00308_0": 1409,
      "Alias_00307_0": 1410,
      "Alias_00482_0": 1411,
      "Alias_00637_1": 1412,
      "Alias_00426_0": 1413,
      "Alias_00798_1": 1414,
      "Alias_00933_0": 1415,
      "Alias_00938_1": 1416,
      "Alias_00939_1": 1417,
      "Alias_00128_0": 1418,
      "Entity_00411": 1419,
      "Entity_00189": 1420,
      "Entity_00532": 1421,
      "Entity_00010": 1422,
      "Entity_00018": 1423,
      "Entity_00111": 1424,
      "Entity_00112": 1425,
      "Entity_00835": 1426,
      "Entity_00837": 1427,
      "Entity_00239": 1428,
      "Entity_00919": 1429,
      "Entity_00487": 1430,
      "Entity_00581": 1431,
      "Entity_00588": 1432,
      "Entity_00589": 1433,
      "Entity_00031": 1434,
      "Entity_00037": 1435,
      "Entity_00039": 1436,
      "Entity_00617": 1437,
      "Entity_00689": 1438,
      "Entity_00085": 1439,
      "Entity_00639": 1440,
      "Entity_00934": 1441,
      "Entity_00310": 1442,
      "Entity_00311": 1443,
      "Entity_00386": 1444,
      "Entity_00387": 1445,
      "Entity_00132": 1446,
      "Entity_00133": 1447,
      "Entity_00136": 1448,
      "Entity_00333": 1449,
      "Entity_00431": 1450,
      "Entity_00438": 1451,
      "Entity_00730": 1452,
      "Entity_00518": 1453,
      "Entity_00711": 1454,
      "Entity_00714": 1455,
      "Entity_00109": 1456,
      "Entity_00193": 1457,
      "Entity_00173": 1458,
      "Entity_00100": 1459,
      "Entity_00170": 1460,
      "Entity_00126": 1461,
      "Entity_00162": 1462,
      "Entity_00176": 1463,
      "Entity_00145": 1464,
      "Entity_00053": 1465,
      "Entity_00064": 1466,
      "Entity_00058": 1467,
      "Entity_00062": 1468,
      "Entity_00008": 1469,
      "Entity_00074": 1470,
      "Entity_00021": 1471,
      "Entity_00045": 1472,
      "Entity_00003": 1473,
      "Entity_00023": 1474,
      "Entity_00652": 1475,
      "Entity_00653": 1476,
      "Entity_00655": 1477,
      "Entity_00667": 1478,
      "Entity_00698": 1479,
      "Entity_00600": 1480,
      "Entity_00644": 1481,
      "Entity_00642": 1482,
      "Entity_00662": 1483,
      "Entity_00651": 1484,
      "Entity_00625": 1485,
      "Entity_00608": 1486,
      "Entity_00649": 1487,
      "Entity_00661": 1488,
      "Entity_00302": 1489,
      "Entity_00342": 1490,
      "Entity_00362": 1491,
      "Entity_00363": 1492,
      "Entity_00376": 1493,
      "Entity_00323": 1494,
      "Entity_00466": 1495,
      "Entity_00400": 1496,
      "Entity_00470": 1497,
      "Entity_00428": 1498,
      "Entity_00407": 1499,
      "Entity_00475": 1500,
      "Entity_00408": 1501,
      "Entity_00443": 1502,
      "Entity_00595": 1503,
      "Entity_00566": 1504,
      "Entity_00553": 1505,
      "Entity_00505": 1506,
      "Entity_00544": 1507,
      "Entity_00520": 1508,
      "Entity_00554": 1509,
      "Entity_00565": 1510,
      "Entity_00575": 1511,
      "Entity_00561": 1512,
      "Entity_00574": 1513,
      "Entity_00577": 1514,
      "Entity_00556": 1515,
      "Entity_00503": 1516,
      "Entity_00504": 1517,
      "Entity_00596": 1518,
      "Entity_00578": 1519,
      "Entity_00805": 1520,
      "Entity_00898": 1521,
      "Entity_00857": 1522,
      "Entity_00872": 1523,
      "Entity_00842": 1524,
      "Entity_00899": 1525,
      "Entity_00876": 1526,
      "Entity_00808": 1527,
      "Entity_00894": 1528,
      "Entity_00860": 1529,
      "Entity_00896": 1530,
      "Entity_00929": 1531,
      "Entity_00973": 1532,
      "Entity_00958": 1533,
      "Entity_00971": 1534,
      "Entity_00907": 1535,
      "Entity_00925": 1536,
      "Entity_00903": 1537,
      "Entity_00990": 1538,
      "Entity_00752": 1539,
      "Entity_00773": 1540,
      "Entity_00764": 1541,
      "Entity_00720": 1542,
      "Entity_00741": 1543,
      "Entity_00771": 1544,
      "Entity_00762": 1545,
      "Entity_00776": 1546,
      "Entity_00701": 1547,
      "Entity_00761": 1548,
      "Entity_00756": 1549,
      "Entity_00796": 1550,
      "Entity_00778": 1551,
      "Entity_00209": 1552,
      "Entity_00267": 1553,
      "Entity_00293": 1554,
      "Entity_00202": 1555,
      "Entity_00272": 1556,
      "Entity_00207": 1557,
      "Entity_00251": 1558,
      "Entity_00263": 1559,
      "Entity_00225": 1560,
      "Entity_00275": 1561,
      "Entity_00261": 1562,
      "Entity_00245": 1563,
      "Entity_00259": 1564,
      "Alias_00541_1": 1565,
      "Alias_00545_0": 1566,
      "Alias_00541_0": 1567,
      "Alias_00104_0": 1568,
      "Alias_00746_0": 1569,
      "Alias_00742_0": 1570,
      "Alias_00743_1": 1571,
      "Alias_00740_0": 1572,
      "Alias_00703_0": 1573,
      "Alias_00708_1": 1574,
      "Alias_00708_0": 1575,
      "Alias_00706_1": 1576,
      "Alias_00413_0": 1577,
      "Alias_00419_0": 1578,
      "Alias_00417_0": 1579,
      "Alias_00411_0": 1580,
      "Alias_00022_1": 1581,
      "Alias_00028_0": 1582,
      "Alias_00027_0": 1583,
      "Alias_00029_1": 1584,
      "Alias_00024_0": 1585,
      "Alias_00946_0": 1586,
      "Alias_00942_0": 1587,
      "Alias_00941_1": 1588,
      "Alias_00947_0": 1589,
      "Alias_00946_1": 1590,
      "Alias_00945_1": 1591,
      "Alias_00940_0": 1592,
      "Alias_00802_0": 1593,
      "Alias_00804_1": 1594,
      "Alias_00803_1": 1595,
      "Alias_00801_1": 1596,
      "Alias_00805_0": 1597,
      "Alias_00805_1": 1598,
      "Alias_00372_1": 1599,
      "Alias_00379_1": 1600,
      "Alias_00375_0": 1601,
      "Alias_00374_0": 1602,
      "Alias_00629_0": 1603,
      "Alias_00627_0": 1604,
      "Alias_00625_0": 1605,
      "Alias_00624_0": 1606,
      "Alias_00406_0": 1607,
      "Alias_00402_1": 1608,
      "Alias_00408_0": 1609,
      "Alias_00400_0": 1610,
      "Alias_00203_1": 1611,
      "Alias_00204_0": 1612,
      "Alias_00285_0": 1613,
      "Alias_00286_1": 1614,
      "Alias_00284_0": 1615,
      "Alias_00132_0": 1616,
      "Alias_00133_1": 1617,
      "Alias_00137_0": 1618,
      "Alias_00135_1": 1619,
      "Alias_00131_0": 1620,
      "Alias_00254_1": 1621,
      "Alias_00257_0": 1622,
      "Alias_00261_0": 1623,
      "Alias_00957_0": 1624,
      "Alias_00955_0": 1625,
      "Alias_00950_0": 1626,
      "Alias_00976_0": 1627,
      "Alias_00979_0": 1628,
      "Alias_00974_1": 1629,
      "Alias_00973_1": 1630,
      "Alias_00975_1": 1631,
      "Alias_00996_0": 1632,
      "Alias_00991_1": 1633,
      "Alias_00995_0": 1634,
      "Alias_00648_0": 1635,
      "Alias_00645_1": 1636,
      "Alias_00529_0": 1637,
      "Alias_00522_0": 1638,
      "Alias_00526_1": 1639,
      "Alias_00564_1": 1640,
      "Alias_00562_1": 1641,
      "Alias_00568_0": 1642,
      "Alias_00561_1": 1643,
      "Alias_00566_1": 1644,
      "Alias_00565_1": 1645,
      "Alias_00558_1": 1646,
      "Alias_00559_0": 1647,
      "Alias_00551_1": 1648,
      "Alias_00550_0": 1649,
      "Alias_00603_0": 1650,
      "Alias_00601_1": 1651,
      "Alias_00607_1": 1652,
      "Alias_00600_0": 1653,
      "Alias_00760_1": 1654,
      "Alias_00764_0": 1655,
      "Alias_00162_1": 1656,
      "Alias_00161_1": 1657,
      "Alias_00167_1": 1658,
      "Alias_00169_1": 1659,
      "Alias_00165_0": 1660,
      "Alias_00160_0": 1661,
      "Alias_00193_0": 1662,
      "Alias_00198_1": 1663,
      "Alias_00503_0": 1664,
      "Alias_00508_1": 1665,
      "Alias_00504_1": 1666,
      "Alias_00504_0": 1667,
      "Alias_00338_1": 1668,
      "Alias_00332_0": 1669,
      "Alias_00332_1": 1670,
      "Alias_00330_1": 1671,
      "Alias_00339_1": 1672,
      "Alias_00336_1": 1673,
      "Alias_00330_0": 1674,
      "Alias_00779_0": 1675,
      "Alias_00772_1": 1676,
      "Alias_00775_1": 1677,
      "Alias_00774_0": 1678,
      "Alias_00770_0": 1679,
      "Alias_00519_0": 1680,
      "Alias_00517_1": 1681,
      "Alias_00232_0": 1682,
      "Alias_00230_1": 1683,
      "Alias_00237_0": 1684,
      "Alias_00279_0": 1685,
      "Alias_00272_0": 1686,
      "Alias_00270_1": 1687,
      "Alias_00271_1": 1688,
      "Alias_00277_1": 1689,
      "Alias_00276_1": 1690,
      "Alias_00659_1": 1691,
      "Alias_00654_0": 1692,
      "Alias_00650_0": 1693,
      "Alias_00818_1": 1694,
      "Alias_00899_0": 1695,
      "Alias_00158_1": 1696,
      "Alias_00157_1": 1697,
      "Alias_00156_1": 1698,
      "Alias_00154_0": 1699,
      "Alias_00313_0": 1700,
      "Alias_00016_0": 1701,
      "Alias_00012_0": 1702,
      "Alias_00010_1": 1703,
      "Alias_00011_1": 1704,
      "Alias_00019_1": 1705,
      "Alias_00732_1": 1706,
      "Alias_00673_0": 1707,
      "Alias_00673_1": 1708,
      "Alias_00671_1": 1709,
      "Alias_00848_0": 1710,
      "Alias_00841_1": 1711,
      "Alias_00849_1": 1712,
      "Alias_00845_0": 1713,
      "Alias_00852_1": 1714,
      "Alias_00855_0": 1715,
      "Alias_00856_1": 1716,
      "Alias_00393_1": 1717,
      "Alias_00392_1": 1718,
      "Alias_00399_1": 1719,
      "Alias_00726_0": 1720,
      "Alias_00725_0": 1721,
      "Alias_00721_0": 1722,
      "Alias_00863_0": 1723,
      "Alias_00867_1": 1724,
      "Alias_00865_1": 1725,
      "Alias_00030_1": 1726,
      "Alias_00699_0": 1727,
      "Alias_00692_0": 1728,
      "Alias_00698_0": 1729,
      "Alias_00690_1": 1730,
      "Alias_00699_1": 1731,
      "Alias_00696_1": 1732,
      "Alias_00691_0": 1733,
      "Alias_00175_1": 1734,
      "Alias_00174_0": 1735,
      "Alias_00586_0": 1736,
      "Alias_00584_1": 1737,
      "Alias_00583_1": 1738,
      "Alias_00918_0": 1739,
      "Alias_00915_0": 1740,
      "Alias_00924_1": 1741,
      "Alias_00925_0": 1742,
      "Alias_00823_0": 1743,
      "Alias_00822_0": 1744,
      "Alias_00829_1": 1745,
      "Alias_00825_0": 1746,
      "Alias_00366_1": 1747,
      "Alias_00361_0": 1748,
      "Alias_00364_0": 1749,
      "Alias_00360_0": 1750,
      "Alias_00383_1": 1751,
      "Alias_00439_0": 1752,
      "Alias_00430_1": 1753,
      "Alias_00437_0": 1754,
      "Alias_00216_0": 1755,
      "Alias_00213_0": 1756,
      "Alias_00217_1": 1757,
      "Alias_00215_0": 1758,
      "Alias_00216_1": 1759,
      "Alias_00967_1": 1760,
      "Alias_00960_0": 1761,
      "Alias_00982_1": 1762,
      "Alias_00349_0": 1763,
      "Alias_00342_0": 1764,
      "Alias_00343_1": 1765,
      "Alias_00348_0": 1766,
      "Alias_00088_0": 1767,
      "Alias_00085_1": 1768,
      "Alias_00084_0": 1769,
      "Alias_00227_0": 1770,
      "Alias_00229_1": 1771,
      "Alias_00617_1": 1772,
      "Alias_00614_0": 1773,
      "Alias_00610_0": 1774,
      "Alias_00838_0": 1775,
      "Alias_00831_1": 1776,
      "Alias_00837_0": 1777,
      "Alias_00839_1": 1778,
      "Alias_00836_1": 1779,
      "Alias_00835_1": 1780,
      "Alias_00003_0": 1781,
      "Alias_00008_1": 1782,
      "Alias_00000_1": 1783,
      "Alias_00007_0": 1784,
      "Alias_00049_1": 1785,
      "Alias_00662_0": 1786,
      "Alias_00668_0": 1787,
      "Alias_00054_1": 1788,
      "Alias_00053_1": 1789,
      "Alias_00056_1": 1790,
      "Alias_00495_0": 1791,
      "Alias_00496_1": 1792,
      "Alias_00359_0": 1793,
      "Alias_00354_1": 1794,
      "Alias_00350_1": 1795,
      "Alias_00351_1": 1796,
      "Alias_00579_1": 1797,
      "Alias_00299_0": 1798,
      "Alias_00292_1": 1799,
      "Alias_00299_1": 1800,
      "Alias_00183_1": 1801,
      "Alias_00180_1": 1802,
      "Alias_00181_0": 1803,
      "Alias_00180_0": 1804,
      "Alias_00597_0": 1805,
      "Alias_00595_1": 1806,
      "Alias_00590_0": 1807,
      "Alias_00249_0": 1808,
      "Alias_00249_1": 1809,
      "Alias_00245_1": 1810,
      "Alias_00146_0": 1811,
      "Alias_00149_0": 1812,
      "Alias_00140_1": 1813,
      "Alias_00147_0": 1814,
      "Alias_00147_1": 1815,
      "Alias_00140_0": 1816,
      "Alias_00452_1": 1817,
      "Alias_00451_1": 1818,
      "Alias_00459_1": 1819,
      "Alias_00908_0": 1820,
      "Alias_00329_0": 1821,
      "Alias_00320_1": 1822,
      "Alias_00327_0": 1823,
      "Alias_00325_0": 1824,
      "Alias_00115_1": 1825,
      "Alias_00440_1": 1826,
      "Alias_00447_1": 1827,
      "Alias_00441_0": 1828,
      "Alias_00878_0": 1829,
      "Alias_00879_1": 1830,
      "Alias_00871_0": 1831,
      "Alias_00062_0": 1832,
      "Alias_00060_1": 1833,
      "Alias_00061_1": 1834,
      "Alias_00069_1": 1835,
      "Alias_00078_1": 1836,
      "Alias_00072_1": 1837,
      "Alias_00882_0": 1838,
      "Alias_00887_1": 1839,
      "Alias_00467_0": 1840,
      "Alias_00466_1": 1841,
      "Alias_00472_1": 1842,
      "Alias_00470_1": 1843,
      "Alias_00477_0": 1844,
      "Alias_00477_1": 1845,
      "Alias_00710_1": 1846,
      "Alias_00715_0": 1847,
      "Alias_00538_0": 1848,
      "Alias_00535_0": 1849,
      "Alias_00485_0": 1850,
      "Alias_00485_1": 1851,
      "Alias_00091_1": 1852,
      "Alias_00091_0": 1853,
      "Alias_00094_0": 1854,
      "Alias_00633_1": 1855,
      "Alias_00429_0": 1856,
      "Alias_00427_1": 1857,
      "Alias_00426_1": 1858,
      "Alias_00796_0": 1859,
      "Alias_00792_0": 1860,
      "Alias_00937_0": 1861,
      "Alias_00129_0": 1862,
      "Alias_00123_1": 1863,
      "Entity_00419": 1864,
      "Entity_00182": 1865,
      "Entity_00184": 1866,
      "Entity_00537": 1867,
      "Entity_00013": 1868,
      "Entity_00113": 1869,
      "Entity_00118": 1870,
      "Entity_00989": 1871,
      "Entity_00231": 1872,
      "Entity_00233": 1873,
      "Entity_00235": 1874,
      "Entity_00911": 1875,
      "Entity_00917": 1876,
      "Entity_00480": 1877,
      "Entity_00482": 1878,
      "Entity_00485": 1879,
      "Entity_00486": 1880,
      "Entity_00489": 1881,
      "Entity_00584": 1882,
      "Entity_00585": 1883,
      "Entity_00034": 1884,
      "Entity_00681": 1885,
      "Entity_00682": 1886,
      "Entity_00214": 1887,
      "Entity_00218": 1888,
      "Entity_00219": 1889,
      "Entity_00082": 1890,
      "Entity_00633": 1891,
      "Entity_00634": 1892,
      "Entity_00935": 1893,
      "Entity_00938": 1894,
      "Entity_00317": 1895,
      "Entity_00319": 1896,
      "Entity_00384": 1897,
      "Entity_00135": 1898,
      "Entity_00335": 1899,
      "Entity_00338": 1900,
      "Entity_00435": 1901,
      "Entity_00439": 1902,
      "Entity_00519": 1903,
      "Entity_00812": 1904,
      "Entity_00717": 1905,
      "Entity_00285": 1906,
      "Entity_00782": 1907,
      "Entity_00783": 1908,
      "Entity_00786": 1909,
      "Entity_00102": 1910,
      "Entity_00120": 1911,
      "Entity_00107": 1912,
      "Entity_00125": 1913,
      "Entity_00108": 1914,
      "Entity_00149": 1915,
      "Entity_00161": 1916,
      "Entity_00174": 1917,
      "Entity_00156": 1918,
      "Entity_00160": 1919,
      "Entity_00192": 1920,
      "Entity_00147": 1921,
      "Entity_00159": 1922,
      "Entity_00055": 1923,
      "Entity_00005": 1924,
      "Entity_00000": 1925,
      "Entity_00069": 1926,
      "Entity_00094": 1927,
      "Entity_00627": 1928,
      "Entity_00629": 1929,
      "Entity_00673": 1930,
      "Entity_00622": 1931,
      "Entity_00672": 1932,
      "Entity_00628": 1933,
      "Entity_00654": 1934,
      "Entity_00648": 1935,
      "Entity_00677": 1936,
      "Entity_00669": 1937,
      "Entity_00604": 1938,
      "Entity_00696": 1939,
      "Entity_00647": 1940,
      "Entity_00678": 1941,
      "Entity_00379": 1942,
      "Entity_00305": 1943,
      "Entity_00327": 1944,
      "Entity_00397": 1945,
      "Entity_00341": 1946,
      "Entity_00371": 1947,
      "Entity_00346": 1948,
      "Entity_00399": 1949,
      "Entity_00348": 1950,
      "Entity_00325": 1951,
      "Entity_00308": 1952,
      "Entity_00349": 1953,
      "Entity_00377": 1954,
      "Entity_00345": 1955,
      "Entity_00409": 1956,
      "Entity_00455": 1957,
      "Entity_00422": 1958,
      "Entity_00457": 1959,
      "Entity_00497": 1960,
      "Entity_00458": 1961,
      "Entity_00451": 1962,
      "Entity_00463": 1963,
      "Entity_00491": 1964,
      "Entity_00459": 1965,
      "Entity_00524": 1966,
      "Entity_00552": 1967,
      "Entity_00527": 1968,
      "Entity_00542": 1969,
      "Entity_00528": 1970,
      "Entity_00562": 1971,
      "Entity_00594": 1972,
      "Entity_00560": 1973,
      "Entity_00547": 1974,
      "Entity_00866": 1975,
      "Entity_00844": 1976,
      "Entity_00841": 1977,
      "Entity_00826": 1978,
      "Entity_00807": 1979,
      "Entity_00877": 1980,
      "Entity_00843": 1981,
      "Entity_00920": 1982,
      "Entity_00942": 1983,
      "Entity_00946": 1984,
      "Entity_00976": 1985,
      "Entity_00965": 1986,
      "Entity_00975": 1987,
      "Entity_00908": 1988,
      "Entity_00793": 1989,
      "Entity_00798": 1990,
      "Entity_00700": 1991,
      "Entity_00726": 1992,
      "Entity_00746": 1993,
      "Entity_00751": 1994,
      "Entity_00799": 1995,
      "Entity_00763": 1996,
      "Entity_00775": 1997,
      "Entity_00777": 1998,
      "Entity_00769": 1999,
      "Entity_00794": 2000,
      "Entity_00745": 2001,
      "Entity_00791": 2002,
      "Entity_00759": 2003,
      "Entity_00253": 2004,
      "Entity_00205": 2005,
      "Entity_00222": 2006,
      "Entity_00241": 2007,
      "Entity_00258": 2008,
      "Entity_00226": 2009,
      "Entity_00208": 2010,
      "Entity_00278": 2011,
      "Alias_00546_0": 2012,
      "Alias_00548_1": 2013,
      "Alias_00549_0": 2014,
      "Alias_00540_0": 2015,
      "Alias_00103_1": 2016,
      "Alias_00109_1": 2017,
      "Alias_00756_0": 2018,
      "Alias_00752_0": 2019,
      "Alias_00752_1": 2020,
      "Alias_00758_0": 2021,
      "Alias_00755_1": 2022,
      "Alias_00748_1": 2023,
      "Alias_00749_0": 2024,
      "Alias_00745_1": 2025,
      "Alias_00702_0": 2026,
      "Alias_00704_0": 2027,
      "Alias_00413_1": 2028,
      "Alias_00412_1": 2029,
      "Alias_00418_0": 2030,
      "Alias_00021_1": 2031,
      "Alias_00020_0": 2032,
      "Alias_00948_1": 2033,
      "Alias_00948_0": 2034,
      "Alias_00940_1": 2035,
      "Alias_00947_1": 2036,
      "Alias_00944_0": 2037,
      "Alias_00808_1": 2038,
      "Alias_00800_0": 2039,
      "Alias_00379_0": 2040,
      "Alias_00371_0": 2041,
      "Alias_00624_1": 2042,
      "Alias_00628_0": 2043,
      "Alias_00407_0": 2044,
      "Alias_00409_1": 2045,
      "Alias_00405_1": 2046,
      "Alias_00208_1": 2047,
      "Alias_00202_0": 2048,
      "Alias_00207_1": 2049,
      "Alias_00206_1": 2050,
      "Alias_00201_0": 2051,
      "Alias_00281_1": 2052,
      "Alias_00287_1": 2053,
      "Alias_00252_0": 2054,
      "Alias_00252_1": 2055,
      "Alias_00258_0": 2056,
      "Alias_00268_1": 2057,
      "Alias_00267_0": 2058,
      "Alias_00266_1": 2059,
      "Alias_00954_1": 2060,
      "Alias_00952_1": 2061,
      "Alias_00950_1": 2062,
      "Alias_00973_0": 2063,
      "Alias_00977_1": 2064,
      "Alias_00993_0": 2065,
      "Alias_00992_1": 2066,
      "Alias_00998_0": 2067,
      "Alias_00990_1": 2068,
      "Alias_00997_0": 2069,
      "Alias_00995_1": 2070,
      "Alias_00994_0": 2071,
      "Alias_00646_0": 2072,
      "Alias_00643_0": 2073,
      "Alias_00649_1": 2074,
      "Alias_00641_0": 2075,
      "Alias_00529_1": 2076,
      "Alias_00564_0": 2077,
      "Alias_00552_0": 2078,
      "Alias_00550_1": 2079,
      "Alias_00557_1": 2080,
      "Alias_00604_1": 2081,
      "Alias_00602_1": 2082,
      "Alias_00605_0": 2083,
      "Alias_00763_0": 2084,
      "Alias_00769_0": 2085,
      "Alias_00761_1": 2086,
      "Alias_00767_0": 2087,
      "Alias_00765_1": 2088,
      "Alias_00782_0": 2089,
      "Alias_00783_1": 2090,
      "Alias_00168_1": 2091,
      "Alias_00162_0": 2092,
      "Alias_00164_1": 2093,
      "Alias_00163_1": 2094,
      "Alias_00160_1": 2095,
      "Alias_00167_0": 2096,
      "Alias_00166_1": 2097,
      "Alias_00197_1": 2098,
      "Alias_00194_0": 2099,
      "Alias_00502_0": 2100,
      "Alias_00508_0": 2101,
      "Alias_00500_1": 2102,
      "Alias_00507_0": 2103,
      "Alias_00505_0": 2104,
      "Alias_00339_0": 2105,
      "Alias_00335_1": 2106,
      "Alias_00331_0": 2107,
      "Alias_00773_0": 2108,
      "Alias_00778_1": 2109,
      "Alias_00773_1": 2110,
      "Alias_00513_0": 2111,
      "Alias_00512_0": 2112,
      "Alias_00512_1": 2113,
      "Alias_00518_0": 2114,
      "Alias_00238_0": 2115,
      "Alias_00274_1": 2116,
      "Alias_00273_1": 2117,
      "Alias_00659_0": 2118,
      "Alias_00651_1": 2119,
      "Alias_00813_0": 2120,
      "Alias_00818_0": 2121,
      "Alias_00810_1": 2122,
      "Alias_00817_1": 2123,
      "Alias_00890_1": 2124,
      "Alias_00891_1": 2125,
      "Alias_00897_0": 2126,
      "Alias_00897_1": 2127,
      "Alias_00895_1": 2128,
      "Alias_00890_0": 2129,
      "Alias_00154_1": 2130,
      "Alias_00150_1": 2131,
      "Alias_00155_0": 2132,
      "Alias_00316_0": 2133,
      "Alias_00310_1": 2134,
      "Alias_00317_1": 2135,
      "Alias_00315_0": 2136,
      "Alias_00316_1": 2137,
      "Alias_00315_1": 2138,
      "Alias_00014_1": 2139,
      "Alias_00013_1": 2140,
      "Alias_00012_1": 2141,
      "Alias_00016_1": 2142,
      "Alias_00014_0": 2143,
      "Alias_00733_0": 2144,
      "Alias_00738_1": 2145,
      "Alias_00732_0": 2146,
      "Alias_00738_0": 2147,
      "Alias_00737_0": 2148,
      "Alias_00734_0": 2149,
      "Alias_00730_0": 2150,
      "Alias_00672_1": 2151,
      "Alias_00678_0": 2152,
      "Alias_00677_0": 2153,
      "Alias_00679_1": 2154,
      "Alias_00676_1": 2155,
      "Alias_00840_1": 2156,
      "Alias_00841_0": 2157,
      "Alias_00853_0": 2158,
      "Alias_00859_0": 2159,
      "Alias_00850_1": 2160,
      "Alias_00857_0": 2161,
      "Alias_00857_1": 2162,
      "Alias_00399_0": 2163,
      "Alias_00390_0": 2164,
      "Alias_00722_1": 2165,
      "Alias_00721_1": 2166,
      "Alias_00727_0": 2167,
      "Alias_00866_0": 2168,
      "Alias_00869_0": 2169,
      "Alias_00864_1": 2170,
      "Alias_00861_1": 2171,
      "Alias_00869_1": 2172,
      "Alias_00861_0": 2173,
      "Alias_00033_0": 2174,
      "Alias_00038_1": 2175,
      "Alias_00034_0": 2176,
      "Alias_00030_0": 2177,
      "Alias_00178_0": 2178,
      "Alias_00171_1": 2179,
      "Alias_00175_0": 2180,
      "Alias_00588_1": 2181,
      "Alias_00588_0": 2182,
      "Alias_00581_1": 2183,
      "Alias_00918_1": 2184,
      "Alias_00919_0": 2185,
      "Alias_00914_1": 2186,
      "Alias_00910_1": 2187,
      "Alias_00917_1": 2188,
      "Alias_00911_0": 2189,
      "Alias_00914_0": 2190,
      "Alias_00922_1": 2191,
      "Alias_00920_1": 2192,
      "Alias_00921_1": 2193,
      "Alias_00827_0": 2194,
      "Alias_00825_1": 2195,
      "Alias_00820_0": 2196,
      "Alias_00366_0": 2197,
      "Alias_00363_0": 2198,
      "Alias_00368_1": 2199,
      "Alias_00362_0": 2200,
      "Alias_00361_1": 2201,
      "Alias_00367_0": 2202,
      "Alias_00433_0": 2203,
      "Alias_00437_1": 2204,
      "Alias_00439_1": 2205,
      "Alias_00435_0": 2206,
      "Alias_00434_0": 2207,
      "Alias_00213_1": 2208,
      "Alias_00218_0": 2209,
      "Alias_00217_0": 2210,
      "Alias_00969_0": 2211,
      "Alias_00968_0": 2212,
      "Alias_00986_0": 2213,
      "Alias_00989_0": 2214,
      "Alias_00982_0": 2215,
      "Alias_00987_0": 2216,
      "Alias_00348_1": 2217,
      "Alias_00347_1": 2218,
      "Alias_00349_1": 2219,
      "Alias_00345_1": 2220,
      "Alias_00341_0": 2221,
      "Alias_00086_0": 2222,
      "Alias_00088_1": 2223,
      "Alias_00083_1": 2224,
      "Alias_00080_1": 2225,
      "Alias_00086_1": 2226,
      "Alias_00080_0": 2227,
      "Alias_00224_1": 2228,
      "Alias_00228_0": 2229,
      "Alias_00227_1": 2230,
      "Alias_00220_0": 2231,
      "Alias_00616_0": 2232,
      "Alias_00610_1": 2233,
      "Alias_00617_0": 2234,
      "Alias_00615_0": 2235,
      "Alias_00838_1": 2236,
      "Alias_00832_0": 2237,
      "Alias_00831_0": 2238,
      "Alias_00834_0": 2239,
      "Alias_00006_0": 2240,
      "Alias_00004_1": 2241,
      "Alias_00008_0": 2242,
      "Alias_00001_0": 2243,
      "Alias_00044_1": 2244,
      "Alias_00043_1": 2245,
      "Alias_00040_0": 2246,
      "Alias_00662_1": 2247,
      "Alias_00665_0": 2248,
      "Alias_00665_1": 2249,
      "Alias_00661_0": 2250,
      "Alias_00059_0": 2251,
      "Alias_00052_0": 2252,
      "Alias_00050_1": 2253,
      "Alias_00050_0": 2254,
      "Alias_00499_1": 2255,
      "Alias_00494_0": 2256,
      "Alias_00356_0": 2257,
      "Alias_00572_1": 2258,
      "Alias_00293_0": 2259,
      "Alias_00291_1": 2260,
      "Alias_00290_0": 2261,
      "Alias_00182_0": 2262,
      "Alias_00185_1": 2263,
      "Alias_00184_0": 2264,
      "Alias_00593_0": 2265,
      "Alias_00594_1": 2266,
      "Alias_00593_1": 2267,
      "Alias_00597_1": 2268,
      "Alias_00595_0": 2269,
      "Alias_00594_0": 2270,
      "Alias_00246_0": 2271,
      "Alias_00243_0": 2272,
      "Alias_00244_1": 2273,
      "Alias_00241_1": 2274,
      "Alias_00240_0": 2275,
      "Alias_00683_0": 2276,
      "Alias_00682_0": 2277,
      "Alias_00683_1": 2278,
      "Alias_00688_0": 2279,
      "Alias_00687_1": 2280,
      "Alias_00684_0": 2281,
      "Alias_00141_1": 2282,
      "Alias_00452_0": 2283,
      "Alias_00909_0": 2284,
      "Alias_00905_0": 2285,
      "Alias_00900_0": 2286,
      "Alias_00328_1": 2287,
      "Alias_00324_1": 2288,
      "Alias_00328_0": 2289,
      "Alias_00327_1": 2290,
      "Alias_00110_1": 2291,
      "Alias_00111_1": 2292,
      "Alias_00119_1": 2293,
      "Alias_00114_0": 2294,
      "Alias_00441_1": 2295,
      "Alias_00444_0": 2296,
      "Alias_00870_1": 2297,
      "Alias_00871_1": 2298,
      "Alias_00870_0": 2299,
      "Alias_00062_1": 2300,
      "Alias_00079_0": 2301,
      "Alias_00075_0": 2302,
      "Alias_00076_1": 2303,
      "Alias_00888_1": 2304,
      "Alias_00882_1": 2305,
      "Alias_00889_1": 2306,
      "Alias_00885_0": 2307,
      "Alias_00881_0": 2308,
      "Alias_00463_0": 2309,
      "Alias_00464_1": 2310,
      "Alias_00467_1": 2311,
      "Alias_00469_1": 2312,
      "Alias_00476_0": 2313,
      "Alias_00475_0": 2314,
      "Alias_00475_1": 2315,
      "Alias_00471_0": 2316,
      "Alias_00713_1": 2317,
      "Alias_00714_0": 2318,
      "Alias_00536_0": 2319,
      "Alias_00533_0": 2320,
      "Alias_00534_1": 2321,
      "Alias_00530_0": 2322,
      "Alias_00302_0": 2323,
      "Alias_00304_1": 2324,
      "Alias_00300_1": 2325,
      "Alias_00309_1": 2326,
      "Alias_00486_0": 2327,
      "Alias_00489_0": 2328,
      "Alias_00482_1": 2329,
      "Alias_00481_1": 2330,
      "Alias_00099_0": 2331,
      "Alias_00092_1": 2332,
      "Alias_00090_1": 2333,
      "Alias_00099_1": 2334,
      "Alias_00095_0": 2335,
      "Alias_00096_1": 2336,
      "Alias_00633_0": 2337,
      "Alias_00638_1": 2338,
      "Alias_00632_1": 2339,
      "Alias_00638_0": 2340,
      "Alias_00639_1": 2341,
      "Alias_00636_1": 2342,
      "Alias_00630_0": 2343,
      "Alias_00423_1": 2344,
      "Alias_00420_1": 2345,
      "Alias_00421_1": 2346,
      "Alias_00427_0": 2347,
      "Alias_00425_0": 2348,
      "Alias_00421_0": 2349,
      "Alias_00799_0": 2350,
      "Alias_00793_1": 2351,
      "Alias_00796_1": 2352,
      "Alias_00790_0": 2353,
      "Alias_00934_1": 2354,
      "Alias_00935_1": 2355,
      "Alias_00122_1": 2356,
      "Alias_00120_1": 2357,
      "Entity_00410": 2358,
      "Entity_00414": 2359,
      "Entity_00417": 2360,
      "Entity_00183": 2361,
      "Entity_00535": 2362,
      "Entity_00011": 2363,
      "Entity_00016": 2364,
      "Entity_00110": 2365,
      "Entity_00115": 2366,
      "Entity_00984": 2367,
      "Entity_00986": 2368,
      "Entity_00987": 2369,
      "Entity_00831": 2370,
      "Entity_00230": 2371,
      "Entity_00236": 2372,
      "Entity_00910": 2373,
      "Entity_00582": 2374,
      "Entity_00587": 2375,
      "Entity_00030": 2376,
      "Entity_00035": 2377,
      "Entity_00611": 2378,
      "Entity_00614": 2379,
      "Entity_00616": 2380,
      "Entity_00680": 2381,
      "Entity_00687": 2382,
      "Entity_00217": 2383,
      "Entity_00083": 2384,
      "Entity_00937": 2385,
      "Entity_00315": 2386,
      "Entity_00381": 2387,
      "Entity_00382": 2388,
      "Entity_00383": 2389,
      "Entity_00330": 2390,
      "Entity_00434": 2391,
      "Entity_00732": 2392,
      "Entity_00738": 2393,
      "Entity_00739": 2394,
      "Entity_00880": 2395,
      "Entity_00881": 2396,
      "Entity_00887": 2397,
      "Entity_00511": 2398,
      "Entity_00810": 2399,
      "Entity_00817": 2400,
      "Entity_00713": 2401,
      "Entity_00715": 2402,
      "Entity_00719": 2403,
      "Entity_00280": 2404,
      "Entity_00281": 2405,
      "Entity_00283": 2406,
      "Entity_00167": 2407,
      "Entity_00122": 2408,
      "Entity_00106": 2409,
      "Entity_00142": 2410,
      "Entity_00158": 2411,
      "Entity_00171": 2412,
      "Entity_00175": 2413,
      "Entity_00196": 2414,
      "Entity_00095": 2415,
      "Entity_00098": 2416,
      "Entity_00070": 2417,
      "Entity_00046": 2418,
      "Entity_00099": 2419,
      "Entity_00048": 2420,
      "Entity_00090": 2421,
      "Entity_00091": 2422,
      "Entity_00047": 2423,
      "Entity_00699": 2424,
      "Entity_00601": 2425,
      "Entity_00643": 2426,
      "Entity_00694": 2427,
      "Entity_00623": 2428,
      "Entity_00660": 2429,
      "Entity_00659": 2430,
      "Entity_00368": 2431,
      "Entity_00328": 2432,
      "Entity_00301": 2433,
      "Entity_00343": 2434,
      "Entity_00304": 2435,
      "Entity_00360": 2436,
      "Entity_00390": 2437,
      "Entity_00392": 2438,
      "Entity_00347": 2439,
      "Entity_00424": 2440,
      "Entity_00498": 2441,
      "Entity_00444": 2442,
      "Entity_00406": 2443,
      "Entity_00420": 2444,
      "Entity_00499": 2445,
      "Entity_00461": 2446,
      "Entity_00474": 2447,
      "Entity_00445": 2448,
      "Entity_00403": 2449,
      "Entity_00567": 2450,
      "Entity_00572": 2451,
      "Entity_00541": 2452,
      "Entity_00526": 2453,
      "Entity_00551": 2454,
      "Entity_00501": 2455,
      "Entity_00543": 2456,
      "Entity_00545": 2457,
      "Entity_00897": 2458,
      "Entity_00854": 2459,
      "Entity_00846": 2460,
      "Entity_00863": 2461,
      "Entity_00865": 2462,
      "Entity_00869": 2463,
      "Entity_00803": 2464,
      "Entity_00823": 2465,
      "Entity_00905": 2466,
      "Entity_00993": 2467,
      "Entity_00922": 2468,
      "Entity_00970": 2469,
      "Entity_00951": 2470,
      "Entity_00948": 2471,
      "Entity_00977": 2472,
      "Entity_00943": 2473,
      "Entity_00945": 2474,
      "Entity_00996": 2475,
      "Entity_00768": 2476,
      "Entity_00744": 2477,
      "Entity_00772": 2478,
      "Entity_00725": 2479,
      "Entity_00703": 2480,
      "Entity_00704": 2481,
      "Entity_00790": 2482,
      "Entity_00257": 2483,
      "Entity_00206": 2484,
      "Entity_00220": 2485,
      "Entity_00242": 2486,
      "Entity_00276": 2487,
      "Entity_00294": 2488,
      "Entity_00290": 2489,
      "Entity_00247": 2490,
      "Alias_00544_1": 2491,
      "Alias_00540_1": 2492,
      "Alias_00549_1": 2493,
      "Alias_00104_1": 2494,
      "Alias_00105_0": 2495,
      "Alias_00106_1": 2496,
      "Alias_00101_0": 2497,
      "Alias_00753_1": 2498,
      "Alias_00755_0": 2499,
      "Alias_00756_1": 2500,
      "Alias_00748_0": 2501,
      "Alias_00410_1": 2502,
      "Alias_00415_0": 2503,
      "Alias_00029_0": 2504,
      "Alias_00025_1": 2505,
      "Alias_00941_0": 2506,
      "Alias_00373_0": 2507,
      "Alias_00377_0": 2508,
      "Alias_00377_1": 2509,
      "Alias_00620_1": 2510,
      "Alias_00625_1": 2511,
      "Alias_00403_0": 2512,
      "Alias_00409_0": 2513,
      "Alias_00401_1": 2514,
      "Alias_00405_0": 2515,
      "Alias_00401_0": 2516,
      "Alias_00205_1": 2517,
      "Alias_00283_0": 2518,
      "Alias_00289_0": 2519,
      "Alias_00284_1": 2520,
      "Alias_00130_1": 2521,
      "Alias_00137_1": 2522,
      "Alias_00139_1": 2523,
      "Alias_00134_0": 2524,
      "Alias_00251_0": 2525,
      "Alias_00262_0": 2526,
      "Alias_00260_1": 2527,
      "Alias_00269_1": 2528,
      "Alias_00264_0": 2529,
      "Alias_00958_1": 2530,
      "Alias_00959_0": 2531,
      "Alias_00951_1": 2532,
      "Alias_00954_0": 2533,
      "Alias_00975_0": 2534,
      "Alias_00976_1": 2535,
      "Alias_00974_0": 2536,
      "Alias_00970_0": 2537,
      "Alias_00999_1": 2538,
      "Alias_00523_1": 2539,
      "Alias_00527_0": 2540,
      "Alias_00563_0": 2541,
      "Alias_00560_1": 2542,
      "Alias_00552_1": 2543,
      "Alias_00557_0": 2544,
      "Alias_00555_0": 2545,
      "Alias_00609_0": 2546,
      "Alias_00607_0": 2547,
      "Alias_00768_1": 2548,
      "Alias_00768_0": 2549,
      "Alias_00760_0": 2550,
      "Alias_00788_1": 2551,
      "Alias_00785_0": 2552,
      "Alias_00781_0": 2553,
      "Alias_00166_0": 2554,
      "Alias_00190_0": 2555,
      "Alias_00502_1": 2556,
      "Alias_00509_1": 2557,
      "Alias_00506_1": 2558,
      "Alias_00505_1": 2559,
      "Alias_00333_1": 2560,
      "Alias_00771_1": 2561,
      "Alias_00779_1": 2562,
      "Alias_00518_1": 2563,
      "Alias_00510_1": 2564,
      "Alias_00231_1": 2565,
      "Alias_00235_0": 2566,
      "Alias_00272_1": 2567,
      "Alias_00279_1": 2568,
      "Alias_00658_1": 2569,
      "Alias_00658_0": 2570,
      "Alias_00651_0": 2571,
      "Alias_00816_0": 2572,
      "Alias_00817_0": 2573,
      "Alias_00815_0": 2574,
      "Alias_00815_1": 2575,
      "Alias_00810_0": 2576,
      "Alias_00896_1": 2577,
      "Alias_00159_0": 2578,
      "Alias_00317_0": 2579,
      "Alias_00311_0": 2580,
      "Alias_00018_1": 2581,
      "Alias_00015_0": 2582,
      "Alias_00734_1": 2583,
      "Alias_00737_1": 2584,
      "Alias_00736_1": 2585,
      "Alias_00672_0": 2586,
      "Alias_00675_1": 2587,
      "Alias_00848_1": 2588,
      "Alias_00845_1": 2589,
      "Alias_00850_0": 2590,
      "Alias_00393_0": 2591,
      "Alias_00392_0": 2592,
      "Alias_00390_1": 2593,
      "Alias_00397_0": 2594,
      "Alias_00397_1": 2595,
      "Alias_00395_1": 2596,
      "Alias_00391_0": 2597,
      "Alias_00728_1": 2598,
      "Alias_00722_0": 2599,
      "Alias_00727_1": 2600,
      "Alias_00726_1": 2601,
      "Alias_00864_0": 2602,
      "Alias_00039_0": 2603,
      "Alias_00034_1": 2604,
      "Alias_00032_1": 2605,
      "Alias_00035_0": 2606,
      "Alias_00035_1": 2607,
      "Alias_00696_0": 2608,
      "Alias_00693_0": 2609,
      "Alias_00693_1": 2610,
      "Alias_00697_0": 2611,
      "Alias_00172_0": 2612,
      "Alias_00177_0": 2613,
      "Alias_00583_0": 2614,
      "Alias_00582_1": 2615,
      "Alias_00587_0": 2616,
      "Alias_00580_0": 2617,
      "Alias_00911_1": 2618,
      "Alias_00920_0": 2619,
      "Alias_00827_1": 2620,
      "Alias_00826_1": 2621,
      "Alias_00824_0": 2622,
      "Alias_00363_1": 2623,
      "Alias_00360_1": 2624,
      "Alias_00388_1": 2625,
      "Alias_00389_0": 2626,
      "Alias_00382_0": 2627,
      "Alias_00436_1": 2628,
      "Alias_00214_1": 2629,
      "Alias_00219_1": 2630,
      "Alias_00211_0": 2631,
      "Alias_00961_1": 2632,
      "Alias_00967_0": 2633,
      "Alias_00969_1": 2634,
      "Alias_00965_0": 2635,
      "Alias_00966_1": 2636,
      "Alias_00961_0": 2637,
      "Alias_00988_1": 2638,
      "Alias_00980_1": 2639,
      "Alias_00985_0": 2640,
      "Alias_00985_1": 2641,
      "Alias_00346_0": 2642,
      "Alias_00343_0": 2643,
      "Alias_00344_0": 2644,
      "Alias_00081_1": 2645,
      "Alias_00226_0": 2646,
      "Alias_00223_1": 2647,
      "Alias_00225_0": 2648,
      "Alias_00618_1": 2649,
      "Alias_00613_1": 2650,
      "Alias_00834_1": 2651,
      "Alias_00833_1": 2652,
      "Alias_00001_1": 2653,
      "Alias_00009_1": 2654,
      "Alias_00005_0": 2655,
      "Alias_00004_0": 2656,
      "Alias_00042_0": 2657,
      "Alias_00045_1": 2658,
      "Alias_00669_0": 2659,
      "Alias_00667_1": 2660,
      "Alias_00664_0": 2661,
      "Alias_00055_0": 2662,
      "Alias_00055_1": 2663,
      "Alias_00493_0": 2664,
      "Alias_00499_0": 2665,
      "Alias_00493_1": 2666,
      "Alias_00497_1": 2667,
      "Alias_00495_1": 2668,
      "Alias_00490_0": 2669,
      "Alias_00353_1": 2670,
      "Alias_00352_1": 2671,
      "Alias_00358_0": 2672,
      "Alias_00350_0": 2673,
      "Alias_00579_0": 2674,
      "Alias_00574_1": 2675,
      "Alias_00577_0": 2676,
      "Alias_00296_0": 2677,
      "Alias_00293_1": 2678,
      "Alias_00186_0": 2679,
      "Alias_00183_0": 2680,
      "Alias_00186_1": 2681,
      "Alias_00598_1": 2682,
      "Alias_00590_1": 2683,
      "Alias_00596_1": 2684,
      "Alias_00242_0": 2685,
      "Alias_00243_1": 2686,
      "Alias_00242_1": 2687,
      "Alias_00689_0": 2688,
      "Alias_00682_1": 2689,
      "Alias_00681_1": 2690,
      "Alias_00686_1": 2691,
      "Alias_00681_0": 2692,
      "Alias_00149_1": 2693,
      "Alias_00144_0": 2694,
      "Alias_00451_0": 2695,
      "Alias_00904_1": 2696,
      "Alias_00900_1": 2697,
      "Alias_00909_1": 2698,
      "Alias_00901_0": 2699,
      "Alias_00326_0": 2700,
      "Alias_00329_1": 2701,
      "Alias_00326_1": 2702,
      "Alias_00325_1": 2703,
      "Alias_00119_0": 2704,
      "Alias_00117_1": 2705,
      "Alias_00110_0": 2706,
      "Alias_00443_0": 2707,
      "Alias_00448_1": 2708,
      "Alias_00447_0": 2709,
      "Alias_00445_1": 2710,
      "Alias_00872_1": 2711,
      "Alias_00064_1": 2712,
      "Alias_00067_0": 2713,
      "Alias_00066_1": 2714,
      "Alias_00061_0": 2715,
      "Alias_00072_0": 2716,
      "Alias_00070_1": 2717,
      "Alias_00077_0": 2718,
      "Alias_00077_1": 2719,
      "Alias_00880_1": 2720,
      "Alias_00881_1": 2721,
      "Alias_00886_1": 2722,
      "Alias_00468_0": 2723,
      "Alias_00473_0": 2724,
      "Alias_00472_0": 2725,
      "Alias_00714_1": 2726,
      "Alias_00711_1": 2727,
      "Alias_00538_1": 2728,
      "Alias_00533_1": 2729,
      "Alias_00534_0": 2730,
      "Alias_00302_1": 2731,
      "Alias_00301_1": 2732,
      "Alias_00480_1": 2733,
      "Alias_00481_0": 2734,
      "Alias_00093_1": 2735,
      "Alias_00632_0": 2736,
      "Alias_00635_0": 2737,
      "Alias_00422_1": 2738,
      "Alias_00429_1": 2739,
      "Alias_00420_0": 2740,
      "Alias_00797_1": 2741,
      "Alias_00795_1": 2742,
      "Alias_00791_0": 2743,
      "Alias_00936_0": 2744,
      "Alias_00938_0": 2745,
      "Alias_00930_1": 2746,
      "Alias_00935_0": 2747,
      "Alias_00930_0": 2748,
      "Alias_00122_0": 2749,
      "Alias_00125_1": 2750,
      "Alias_00121_0": 2751,
      "Alias_00120_0": 2752,
      "Entity_00181": 2753,
      "Entity_00188": 2754,
      "Entity_00531": 2755,
      "Entity_00015": 2756,
      "Entity_00017": 2757,
      "Entity_00985": 2758,
      "Entity_00234": 2759,
      "Entity_00912": 2760,
      "Entity_00583": 2761,
      "Entity_00036": 2762,
      "Entity_00038": 2763,
      "Entity_00683": 2764,
      "Entity_00685": 2765,
      "Entity_00081": 2766,
      "Entity_00313": 2767,
      "Entity_00314": 2768,
      "Entity_00318": 2769,
      "Entity_00385": 2770,
      "Entity_00388": 2771,
      "Entity_00389": 2772,
      "Entity_00130": 2773,
      "Entity_00331": 2774,
      "Entity_00430": 2775,
      "Entity_00884": 2776,
      "Entity_00885": 2777,
      "Entity_00886": 2778,
      "Entity_00889": 2779,
      "Entity_00510": 2780,
      "Entity_00515": 2781,
      "Entity_00516": 2782,
      "Entity_00815": 2783,
      "Entity_00282": 2784,
      "Entity_00785": 2785,
      "Entity_00787": 2786,
      "Entity_00127": 2787,
      "Entity_00146": 2788,
      "Entity_00151": 2789,
      "Entity_00163": 2790,
      "Entity_00123": 2791,
      "Entity_00104": 2792,
      "Entity_00190": 2793,
      "Entity_00191": 2794,
      "Entity_00050": 2795,
      "Entity_00079": 2796,
      "Entity_00073": 2797,
      "Entity_00022": 2798,
      "Entity_00041": 2799,
      "Entity_00025": 2800,
      "Entity_00061": 2801,
      "Entity_00060": 2802,
      "Entity_00059": 2803,
      "Entity_00657": 2804,
      "Entity_00626": 2805,
      "Entity_00665": 2806,
      "Entity_00674": 2807,
      "Entity_00372": 2808,
      "Entity_00354": 2809,
      "Entity_00365": 2810,
      "Entity_00369": 2811,
      "Entity_00378": 2812,
      "Entity_00429": 2813,
      "Entity_00402": 2814,
      "Entity_00442": 2815,
      "Entity_00462": 2816,
      "Entity_00425": 2817,
      "Entity_00456": 2818,
      "Entity_00490": 2819,
      "Entity_00496": 2820,
      "Entity_00478": 2821,
      "Entity_00598": 2822,
      "Entity_00568": 2823,
      "Entity_00506": 2824,
      "Entity_00507": 2825,
      "Entity_00569": 2826,
      "Entity_00852": 2827,
      "Entity_00871": 2828,
      "Entity_00828": 2829,
      "Entity_00801": 2830,
      "Entity_00804": 2831,
      "Entity_00847": 2832,
      "Entity_00953": 2833,
      "Entity_00955": 2834,
      "Entity_00967": 2835,
      "Entity_00964": 2836,
      "Entity_00928": 2837,
      "Entity_00961": 2838,
      "Entity_00956": 2839,
      "Entity_00969": 2840,
      "Entity_00994": 2841,
      "Entity_00991": 2842,
      "Entity_00724": 2843,
      "Entity_00766": 2844,
      "Entity_00707": 2845,
      "Entity_00749": 2846,
      "Entity_00723": 2847,
      "Entity_00792": 2848,
      "Entity_00255": 2849,
      "Entity_00229": 2850,
      "Entity_00268": 2851,
      "Entity_00264": 2852,
      "Entity_00200": 2853,
      "Entity_00246": 2854,
      "Entity_00299": 2855,
      "Entity_00248": 2856,
      "Entity_00203": 2857,
      "Alias_00544_0": 2858,
      "Alias_00108_0": 2859,
      "Alias_00101_1": 2860,
      "Alias_00744_1": 2861,
      "Alias_00745_0": 2862,
      "Alias_00706_0": 2863,
      "Alias_00707_1": 2864,
      "Alias_00028_1": 2865,
      "Alias_00020_1": 2866,
      "Alias_00944_1": 2867,
      "Alias_00800_1": 2868,
      "Alias_00806_1": 2869,
      "Alias_00804_0": 2870,
      "Alias_00623_1": 2871,
      "Alias_00200_1": 2872,
      "Alias_00207_0": 2873,
      "Alias_00288_1": 2874,
      "Alias_00280_0": 2875,
      "Alias_00138_1": 2876,
      "Alias_00138_0": 2877,
      "Alias_00130_0": 2878,
      "Alias_00259_0": 2879,
      "Alias_00255_0": 2880,
      "Alias_00250_0": 2881,
      "Alias_00269_0": 2882,
      "Alias_00261_1": 2883,
      "Alias_00952_0": 2884,
      "Alias_00958_0": 2885,
      "Alias_00978_1": 2886,
      "Alias_00992_0": 2887,
      "Alias_00648_1": 2888,
      "Alias_00643_1": 2889,
      "Alias_00642_1": 2890,
      "Alias_00647_1": 2891,
      "Alias_00523_0": 2892,
      "Alias_00524_1": 2893,
      "Alias_00525_1": 2894,
      "Alias_00524_0": 2895,
      "Alias_00520_0": 2896,
      "Alias_00566_0": 2897,
      "Alias_00561_0": 2898,
      "Alias_00551_0": 2899,
      "Alias_00604_0": 2900,
      "Alias_00763_1": 2901,
      "Alias_00765_0": 2902,
      "Alias_00766_1": 2903,
      "Alias_00761_0": 2904,
      "Alias_00782_1": 2905,
      "Alias_00787_1": 2906,
      "Alias_00192_1": 2907,
      "Alias_00190_1": 2908,
      "Alias_00197_0": 2909,
      "Alias_00195_1": 2910,
      "Alias_00501_0": 2911,
      "Alias_00338_0": 2912,
      "Alias_00778_0": 2913,
      "Alias_00770_1": 2914,
      "Alias_00777_1": 2915,
      "Alias_00513_1": 2916,
      "Alias_00238_1": 2917,
      "Alias_00239_1": 2918,
      "Alias_00277_0": 2919,
      "Alias_00652_1": 2920,
      "Alias_00655_0": 2921,
      "Alias_00895_0": 2922,
      "Alias_00894_0": 2923,
      "Alias_00153_0": 2924,
      "Alias_00013_0": 2925,
      "Alias_00010_0": 2926,
      "Alias_00739_0": 2927,
      "Alias_00739_1": 2928,
      "Alias_00674_1": 2929,
      "Alias_00670_1": 2930,
      "Alias_00849_0": 2931,
      "Alias_00846_1": 2932,
      "Alias_00853_1": 2933,
      "Alias_00855_1": 2934,
      "Alias_00851_0": 2935,
      "Alias_00394_1": 2936,
      "Alias_00391_1": 2937,
      "Alias_00868_1": 2938,
      "Alias_00698_1": 2939,
      "Alias_00172_1": 2940,
      "Alias_00177_1": 2941,
      "Alias_00589_0": 2942,
      "Alias_00587_1": 2943,
      "Alias_00585_1": 2944,
      "Alias_00912_1": 2945,
      "Alias_00917_0": 2946,
      "Alias_00919_1": 2947,
      "Alias_00929_0": 2948,
      "Alias_00922_0": 2949,
      "Alias_00924_0": 2950,
      "Alias_00829_0": 2951,
      "Alias_00823_1": 2952,
      "Alias_00821_0": 2953,
      "Alias_00367_1": 2954,
      "Alias_00383_0": 2955,
      "Alias_00386_1": 2956,
      "Alias_00381_0": 2957,
      "Alias_00433_1": 2958,
      "Alias_00438_0": 2959,
      "Alias_00435_1": 2960,
      "Alias_00215_1": 2961,
      "Alias_00966_0": 2962,
      "Alias_00960_1": 2963,
      "Alias_00984_1": 2964,
      "Alias_00983_1": 2965,
      "Alias_00346_1": 2966,
      "Alias_00089_0": 2967,
      "Alias_00089_1": 2968,
      "Alias_00228_1": 2969,
      "Alias_00229_0": 2970,
      "Alias_00226_1": 2971,
      "Alias_00224_0": 2972,
      "Alias_00613_0": 2973,
      "Alias_00616_1": 2974,
      "Alias_00615_1": 2975,
      "Alias_00836_0": 2976,
      "Alias_00833_0": 2977,
      "Alias_00832_1": 2978,
      "Alias_00835_0": 2979,
      "Alias_00009_0": 2980,
      "Alias_00049_0": 2981,
      "Alias_00045_0": 2982,
      "Alias_00041_0": 2983,
      "Alias_00663_0": 2984,
      "Alias_00057_1": 2985,
      "Alias_00496_0": 2986,
      "Alias_00497_0": 2987,
      "Alias_00573_0": 2988,
      "Alias_00578_0": 2989,
      "Alias_00577_1": 2990,
      "Alias_00575_1": 2991,
      "Alias_00294_1": 2992,
      "Alias_00296_1": 2993,
      "Alias_00189_0": 2994,
      "Alias_00240_1": 2995,
      "Alias_00684_1": 2996,
      "Alias_00680_1": 2997,
      "Alias_00689_1": 2998,
      "Alias_00680_0": 2999,
      "Alias_00144_1": 3000,
      "Alias_00142_1": 3001,
      "Alias_00459_0": 3002,
      "Alias_00453_1": 3003,
      "Alias_00457_0": 3004,
      "Alias_00457_1": 3005,
      "Alias_00456_1": 3006,
      "Alias_00903_0": 3007,
      "Alias_00902_1": 3008,
      "Alias_00907_1": 3009,
      "Alias_00323_0": 3010,
      "Alias_00321_0": 3011,
      "Alias_00113_0": 3012,
      "Alias_00118_1": 3013,
      "Alias_00113_1": 3014,
      "Alias_00117_0": 3015,
      "Alias_00446_0": 3016,
      "Alias_00444_1": 3017,
      "Alias_00440_0": 3018,
      "Alias_00878_1": 3019,
      "Alias_00879_0": 3020,
      "Alias_00874_1": 3021,
      "Alias_00875_0": 3022,
      "Alias_00876_1": 3023,
      "Alias_00069_0": 3024,
      "Alias_00063_1": 3025,
      "Alias_00074_1": 3026,
      "Alias_00078_0": 3027,
      "Alias_00079_1": 3028,
      "Alias_00886_0": 3029,
      "Alias_00884_1": 3030,
      "Alias_00887_0": 3031,
      "Alias_00468_1": 3032,
      "Alias_00462_0": 3033,
      "Alias_00462_1": 3034,
      "Alias_00464_0": 3035,
      "Alias_00478_1": 3036,
      "Alias_00713_0": 3037,
      "Alias_00712_0": 3038,
      "Alias_00718_0": 3039,
      "Alias_00717_0": 3040,
      "Alias_00719_1": 3041,
      "Alias_00711_0": 3042,
      "Alias_00710_0": 3043,
      "Alias_00530_1": 3044,
      "Alias_00531_0": 3045,
      "Alias_00306_0": 3046,
      "Alias_00306_1": 3047,
      "Alias_00300_0": 3048,
      "Alias_00483_1": 3049,
      "Alias_00486_1": 3050,
      "Alias_00484_0": 3051,
      "Alias_00093_0": 3052,
      "Alias_00092_0": 3053,
      "Alias_00094_1": 3054,
      "Alias_00636_0": 3055,
      "Alias_00630_1": 3056,
      "Alias_00635_1": 3057,
      "Alias_00631_0": 3058,
      "Alias_00428_1": 3059,
      "Alias_00422_0": 3060,
      "Alias_00428_0": 3061,
      "Alias_00425_1": 3062,
      "Alias_00794_1": 3063,
      "Alias_00790_1": 3064,
      "Alias_00794_0": 3065,
      "Alias_00933_1": 3066,
      "Alias_00934_0": 3067,
      "Alias_00124_1": 3068,
      "Alias_00127_0": 3069,
      "Alias_00129_1": 3070,
      "Alias_00125_0": 3071,
      "Entity_00530": 3072,
      "Entity_00536": 3073,
      "Entity_00117": 3074,
      "Entity_00981": 3075,
      "Entity_00833": 3076,
      "Entity_00836": 3077,
      "Entity_00839": 3078,
      "Entity_00232": 3079,
      "Entity_00488": 3080,
      "Entity_00586": 3081,
      "Entity_00033": 3082,
      "Entity_00613": 3083,
      "Entity_00618": 3084,
      "Entity_00688": 3085,
      "Entity_00210": 3086,
      "Entity_00215": 3087,
      "Entity_00084": 3088,
      "Entity_00630": 3089,
      "Entity_00638": 3090,
      "Entity_00939": 3091,
      "Entity_00312": 3092,
      "Entity_00137": 3093,
      "Entity_00733": 3094,
      "Entity_00883": 3095,
      "Entity_00718": 3096,
      "Entity_00287": 3097,
      "Entity_00288": 3098,
      "Entity_00780": 3099,
      "Entity_00781": 3100,
      "Entity_00784": 3101,
      "Entity_00788": 3102,
      "Entity_00789": 3103,
      "Entity_00195": 3104,
      "Entity_00194": 3105,
      "Entity_00103": 3106,
      "Entity_00178": 3107,
      "Entity_00093": 3108,
      "Entity_00054": 3109,
      "Entity_00007": 3110,
      "Entity_00640": 3111,
      "Entity_00602": 3112,
      "Entity_00656": 3113,
      "Entity_00645": 3114,
      "Entity_00690": 3115,
      "Entity_00374": 3116,
      "Entity_00396": 3117,
      "Entity_00391": 3118,
      "Entity_00464": 3119,
      "Entity_00476": 3120,
      "Entity_00423": 3121,
      "Entity_00404": 3122,
      "Entity_00492": 3123,
      "Entity_00447": 3124,
      "Entity_00571": 3125,
      "Entity_00548": 3126,
      "Entity_00508": 3127,
      "Entity_00549": 3128,
      "Entity_00559": 3129,
      "Entity_00879": 3130,
      "Entity_00829": 3131,
      "Entity_00802": 3132,
      "Entity_00870": 3133,
      "Entity_00858": 3134,
      "Entity_00821": 3135,
      "Entity_00892": 3136,
      "Entity_00891": 3137,
      "Entity_00878": 3138,
      "Entity_00944": 3139,
      "Entity_00923": 3140,
      "Entity_00978": 3141,
      "Entity_00754": 3142,
      "Entity_00774": 3143,
      "Entity_00760": 3144,
      "Entity_00747": 3145,
      "Entity_00265": 3146,
      "Entity_00221": 3147,
      "Entity_00243": 3148,
      "Entity_00204": 3149,
      "Entity_00260": 3150,
      "Entity_00291": 3151,
      "Alias_00744_0": 3152,
      "Alias_00415_1": 3153,
      "Alias_00414_0": 3154,
      "Alias_00023_1": 3155,
      "Alias_00807_1": 3156,
      "Alias_00626_0": 3157,
      "Alias_00400_1": 3158,
      "Alias_00208_0": 3159,
      "Alias_00281_0": 3160,
      "Alias_00251_1": 3161,
      "Alias_00266_0": 3162,
      "Alias_00265_1": 3163,
      "Alias_00642_0": 3164,
      "Alias_00562_0": 3165,
      "Alias_00560_0": 3166,
      "Alias_00609_1": 3167,
      "Alias_00785_1": 3168,
      "Alias_00784_0": 3169,
      "Alias_00507_1": 3170,
      "Alias_00336_0": 3171,
      "Alias_00337_0": 3172,
      "Alias_00516_1": 3173,
      "Alias_00233_1": 3174,
      "Alias_00653_0": 3175,
      "Alias_00656_1": 3176,
      "Alias_00812_1": 3177,
      "Alias_00157_0": 3178,
      "Alias_00155_1": 3179,
      "Alias_00311_1": 3180,
      "Alias_00319_1": 3181,
      "Alias_00677_1": 3182,
      "Alias_00844_1": 3183,
      "Alias_00843_1": 3184,
      "Alias_00847_1": 3185,
      "Alias_00859_1": 3186,
      "Alias_00723_1": 3187,
      "Alias_00725_1": 3188,
      "Alias_00720_0": 3189,
      "Alias_00865_0": 3190,
      "Alias_00860_0": 3191,
      "Alias_00037_0": 3192,
      "Alias_00036_1": 3193,
      "Alias_00691_1": 3194,
      "Alias_00694_0": 3195,
      "Alias_00179_0": 3196,
      "Alias_00179_1": 3197,
      "Alias_00176_1": 3198,
      "Alias_00923_0": 3199,
      "Alias_00927_1": 3200,
      "Alias_00820_1": 3201,
      "Alias_00368_0": 3202,
      "Alias_00381_1": 3203,
      "Alias_00385_0": 3204,
      "Alias_00432_1": 3205,
      "Alias_00210_1": 3206,
      "Alias_00211_1": 3207,
      "Alias_00981_0": 3208,
      "Alias_00345_0": 3209,
      "Alias_00005_1": 3210,
      "Alias_00661_1": 3211,
      "Alias_00660_0": 3212,
      "Alias_00053_0": 3213,
      "Alias_00058_0": 3214,
      "Alias_00492_0": 3215,
      "Alias_00494_1": 3216,
      "Alias_00353_0": 3217,
      "Alias_00357_1": 3218,
      "Alias_00351_0": 3219,
      "Alias_00571_0": 3220,
      "Alias_00297_0": 3221,
      "Alias_00295_0": 3222,
      "Alias_00291_0": 3223,
      "Alias_00294_0": 3224,
      "Alias_00181_1": 3225,
      "Alias_00592_0": 3226,
      "Alias_00599_1": 3227,
      "Alias_00246_1": 3228,
      "Alias_00145_0": 3229,
      "Alias_00458_0": 3230,
      "Alias_00455_0": 3231,
      "Alias_00907_0": 3232,
      "Alias_00906_1": 3233,
      "Alias_00320_0": 3234,
      "Alias_00112_0": 3235,
      "Alias_00114_1": 3236,
      "Alias_00442_1": 3237,
      "Alias_00449_1": 3238,
      "Alias_00876_0": 3239,
      "Alias_00873_1": 3240,
      "Alias_00068_1": 3241,
      "Alias_00068_0": 3242,
      "Alias_00064_0": 3243,
      "Alias_00076_0": 3244,
      "Alias_00071_0": 3245,
      "Alias_00883_0": 3246,
      "Alias_00888_0": 3247,
      "Alias_00880_0": 3248,
      "Alias_00465_0": 3249,
      "Alias_00461_0": 3250,
      "Alias_00473_1": 3251,
      "Alias_00716_0": 3252,
      "Alias_00717_1": 3253,
      "Alias_00532_0": 3254,
      "Alias_00531_1": 3255,
      "Alias_00537_0": 3256,
      "Alias_00535_1": 3257,
      "Alias_00308_1": 3258,
      "Alias_00307_1": 3259,
      "Alias_00305_0": 3260,
      "Alias_00489_1": 3261,
      "Alias_00480_0": 3262,
      "Alias_00098_0": 3263,
      "Alias_00097_0": 3264,
      "Alias_00095_1": 3265,
      "Alias_00639_0": 3266,
      "Alias_00634_1": 3267,
      "Alias_00424_1": 3268,
      "Alias_00424_0": 3269,
      "Alias_00792_1": 3270,
      "Alias_00797_0": 3271,
      "Alias_00799_1": 3272,
      "Alias_00939_0": 3273,
      "Alias_00936_1": 3274,
      "Alias_00126_0": 3275,
      "Alias_00128_1": 3276,
      "Alias_00127_1": 3277,
      "Entity_00913": 3278,
      "Entity_00916": 3279,
      "Entity_00481": 3280,
      "Entity_00612": 3281,
      "Entity_00211": 3282,
      "Entity_00080": 3283,
      "Entity_00087": 3284,
      "Entity_00631": 3285,
      "Entity_00635": 3286,
      "Entity_00936": 3287,
      "Entity_00134": 3288,
      "Entity_00736": 3289,
      "Entity_00512": 3290,
      "Entity_00514": 3291,
      "Entity_00814": 3292,
      "Entity_00818": 3293,
      "Entity_00710": 3294,
      "Entity_00289": 3295,
      "Entity_00009": 3296,
      "Entity_00063": 3297,
      "Entity_00675": 3298,
      "Entity_00621": 3299,
      "Entity_00395": 3300,
      "Entity_00540": 3301,
      "Entity_00576": 3302,
      "Entity_00592": 3303,
      "Entity_00806": 3304,
      "Entity_00997": 3305,
      "Entity_00992": 3306,
      "Entity_00721": 3307,
      "Entity_00273": 3308,
      "Entity_00262": 3309,
      "Entity_00296": 3310,
      "Alias_00754_0": 3311,
      "Alias_00705_0": 3312,
      "Alias_00378_0": 3313,
      "Alias_00132_1": 3314,
      "Alias_00255_1": 3315,
      "Alias_00260_0": 3316,
      "Alias_00971_0": 3317,
      "Alias_00997_1": 3318,
      "Alias_00600_1": 3319,
      "Alias_00789_0": 3320,
      "Alias_00196_1": 3321,
      "Alias_00519_1": 3322,
      "Alias_00511_0": 3323,
      "Alias_00233_0": 3324,
      "Alias_00276_0": 3325,
      "Alias_00816_1": 3326,
      "Alias_00150_0": 3327,
      "Alias_00912_0": 3328,
      "Alias_00927_0": 3329,
      "Alias_00365_0": 3330,
      "Alias_00380_0": 3331,
      "Alias_00965_1": 3332,
      "Alias_00087_1": 3333,
      "Alias_00000_0": 3334,
      "Alias_00047_1": 3335,
      "Alias_00667_0": 3336,
      "Alias_00354_0": 3337,
      "Alias_00572_0": 3338,
      "Alias_00290_1": 3339,
      "Alias_00184_1": 3340,
      "Alias_00188_0": 3341,
      "Alias_00592_1": 3342,
      "Alias_00248_0": 3343,
      "Alias_00142_0": 3344,
      "Alias_00143_1": 3345,
      "Alias_00454_0": 3346,
      "Alias_00321_1": 3347,
      "Alias_00074_0": 3348,
      "Alias_00471_1": 3349,
      "Alias_00479_1": 3350,
      "Alias_00301_0": 3351,
      "Alias_00090_0": 3352,
      "Alias_00631_1": 3353,
      "Alias_00937_1": 3354,
      "Alias_00931_0": 3355,
      "Alias_00123_0": 3356,
      "Alias_00126_1": 3357,
      "Entity_00933": 3358,
      "Entity_00337": 3359,
      "Entity_00433": 3360,
      "Entity_00436": 3361,
      "Entity_00737": 3362,
      "Entity_00712": 3363,
      "Entity_00284": 3364,
      "Entity_00077": 3365,
      "Entity_00359": 3366,
      "Entity_00859": 3367,
      "Entity_00950": 3368,
      "Entity_00926": 3369,
      "Entity_00901": 3370,
      "Entity_00249": 3371,
      "Alias_00168_0": 3372,
      "Alias_00232_1": 3373,
      "Alias_00275_1": 3374,
      "Alias_00892_0": 3375,
      "Alias_00589_1": 3376,
      "Alias_00385_1": 3377,
      "Alias_00342_1": 3378,
      "Alias_00618_0": 3379,
      "Alias_00051_0": 3380,
      "Alias_00901_1": 3381,
      "Alias_00446_1": 3382,
      "Alias_00469_0": 3383,
      "Alias_00474_0": 3384,
      "Alias_00488_1": 3385,
      "Alias_00487_1": 3386,
      "Alias_00795_0": 3387,
      "Alias_00931_1": 3388,
      "Entity_00131": 3389,
      "Entity_00332": 3390,
      "Entity_00816": 3391
    },
    "merges": [
      [
        "_",
        "0"
      ],
      [
        "_0",
        "0"
      ],
      [
        "t",
        "i"
      ],
      [
        "i",
        "a"
      ],
      [
        "o",
        "n"
      ],
      [
        "A",
        "l"
      ],
      [
        "s",
        "_00"
      ],
      [
        "ia",
        "s_00"
      ],
      [
        "Al",
        "ias_00"
      ],
      [
        "e",
        "l"
      ],
      [
        "el",
        "a"
      ],
      [
        "R",
        "ela"
      ],
      [
        "ti",
        "on"
      ],
      [
        "Rela",
        "tion"
      ],
      [
        "Relation",
        "_0"
      ],
      [
        "i",
        "s"
      ],
      [
        "t",
        "h"
      ],
      [
        "E",
        "n"
      ],
      [
        "t",
        "y"
      ],
      [
        "ti",
        "ty"
      ],
      [
        "En",
        "tity"
      ],
      [
        "Entity",
        "_00"
      ],
      [
        "_",
        "1"
      ],
      [
        "t",
        "e"
      ],
      [
        "th",
        "e"
      ],
      [
        "o",
        "f"
      ],
      [
        "c",
        "on"
      ],
      [
        "t",
        "o"
      ],
      [
        "Relation_0",
        "4"
      ],
      [
        "f",
        "o"
      ],
      [
        "fo",
        "r"
      ],
      [
        "Relation_0",
        "3"
      ],
      [
        "Relation_0",
        "1"
      ],
      [
        "T",
        "h"
      ],
      [
        "Th",
        "e"
      ],
      [
        "I",
        "n"
      ],
      [
        "a",
        "i"
      ],
      [
        "e",
        "d"
      ],
      [
        "i",
        "th"
      ],
      [
        "p",
        "ai"
      ],
      [
        "r",
        "ed"
      ],
      [
        "w",
        "ith"
      ],
      [
        "x",
        "t"
      ],
      [
        "te",
        "xt"
      ],
      [
        "con",
        "text"
      ],
      [
        "pai",
        "red"
      ],
      [
        "g",
        "h"
      ],
      [
        "o",
        "u"
      ],
      [
        "r",
        "ela"
      ],
      [
        "r",
        "ou"
      ],
      [
        "th",
        "rou"
      ],
      [
        "te",
        "s"
      ],
      [
        "rela",
        "tes"
      ],
      [
        "throu",
        "gh"
      ],
      [
        "c",
        "te"
      ],
      [
        "e",
        "cte"
      ],
      [
        "n",
        "ecte"
      ],
      [
        "v",
        "ia"
      ],
      [
        "con",
        "necte"
      ],
      [
        "connecte",
        "d"
      ],
      [
        "Relation_0",
        "2"
      ],
      [
        "Relation",
        "_00"
      ],
      [
        "Alias_00",
        "7"
      ],
      [
        "Alias_00",
        "5"
      ],
      [
        "Alias_00",
        "2"
      ],
      [
        "Alias_00",
        "9"
      ],
      [
        "Alias_00",
        "6"
      ],
      [
        "Alias_00",
        "8"
      ],
      [
        "Alias_00",
        "1"
      ],
      [
        "Alias_00",
        "3"
      ],
      [
        "Alias_00",
        "0"
      ],
      [
        "Alias_00",
        "4"
      ],
      [
        "6",
        "_0"
      ],
      [
        "Entity_00",
        "1"
      ],
      [
        "Entity_00",
        "0"
      ],
      [
        "3",
        "_0"
      ],
      [
        "8",
        "_1"
      ],
      [
        "Entity_00",
        "6"
      ],
      [
        "Entity_00",
        "3"
      ],
      [
        "9",
        "_0"
      ],
      [
        "2",
        "_0"
      ],
      [
        "Entity_00",
        "4"
      ],
      [
        "4",
        "_1"
      ],
      [
        "Entity_00",
        "5"
      ],
      [
        "Entity_00",
        "8"
      ],
      [
        "3",
        "_1"
      ],
      [
        "2",
        "_1"
      ],
      [
        "Entity_00",
        "9"
      ],
      [
        "8",
        "_0"
      ],
      [
        "0",
        "_1"
      ],
      [
        "1",
        "_1"
      ],
      [
        "Entity_00",
        "7"
      ],
      [
        "7",
        "_0"
      ],
      [
        "7",
        "_1"
      ],
      [
        "9",
        "_1"
      ],
      [
        "5",
        "_0"
      ],
      [
        "6",
        "_1"
      ],
      [
        "5",
        "_1"
      ],
      [
        "Entity_00",
        "2"
      ],
      [
        "1",
        "_0"
      ],
      [
        "4",
        "_0"
      ],
      [
        "0",
        "_0"
      ],
      [
        "Relation_01",
        "5"
      ],
      [
        "Relation_01",
        "2"
      ],
      [
        "Relation_04",
        "2"
      ],
      [
        "Relation_03",
        "7"
      ],
      [
        "Relation_03",
        "5"
      ],
      [
        "Relation_02",
        "5"
      ],
      [
        "Relation_04",
        "0"
      ],
      [
        "Relation_04",
        "3"
      ],
      [
        "Relation_03",
        "0"
      ],
      [
        "Relation_01",
        "1"
      ],
      [
        "Relation_01",
        "4"
      ],
      [
        "Relation_04",
        "4"
      ],
      [
        "Relation_04",
        "5"
      ],
      [
        "Relation_01",
        "7"
      ],
      [
        "Relation_04",
        "8"
      ],
      [
        "Relation_03",
        "8"
      ],
      [
        "Relation_00",
        "5"
      ],
      [
        "Relation_04",
        "7"
      ],
      [
        "Relation_04",
        "6"
      ],
      [
        "Relation_03",
        "6"
      ],
      [
        "Relation_00",
        "1"
      ],
      [
        "Relation_00",
        "6"
      ],
      [
        "Relation_02",
        "2"
      ],
      [
        "Relation_03",
        "4"
      ],
      [
        "Relation_03",
        "9"
      ],
      [
        "Relation_04",
        "9"
      ],
      [
        "Relation_03",
        "1"
      ],
      [
        "Relation_02",
        "0"
      ],
      [
        "Relation_03",
        "3"
      ],
      [
        "Relation_01",
        "6"
      ],
      [
        "Relation_02",
        "4"
      ],
      [
        "Relation_00",
        "9"
      ],
      [
        "Relation_02",
        "6"
      ],
      [
        "Relation_01",
        "3"
      ],
      [
        "Relation_00",
        "3"
      ],
      [
        "Relation_02",
        "9"
      ],
      [
        "Relation_00",
        "0"
      ],
      [
        "Relation_04",
        "1"
      ],
      [
        "Relation_01",
        "8"
      ],
      [
        "Relation_01",
        "9"
      ],
      [
        "Relation_02",
        "1"
      ],
      [
        "Relation_00",
        "8"
      ],
      [
        "Relation_03",
        "2"
      ],
      [
        "Relation_02",
        "7"
      ],
      [
        "Relation_02",
        "8"
      ],
      [
        "Relation_00",
        "7"
      ],
      [
        "Relation_00",
        "4"
      ],
      [
        "Relation_00",
        "2"
      ],
      [
        "Relation_01",
        "0"
      ],
      [
        "Relation_02",
        "3"
      ],
      [
        "Alias_005",
        "4"
      ],
      [
        "Alias_001",
        "0"
      ],
      [
        "Alias_007",
        "5"
      ],
      [
        "Alias_007",
        "4"
      ],
      [
        "Alias_007",
        "0"
      ],
      [
        "Alias_004",
        "1"
      ],
      [
        "Alias_000",
        "2"
      ],
      [
        "Alias_009",
        "4"
      ],
      [
        "Alias_008",
        "0"
      ],
      [
        "Alias_003",
        "7"
      ],
      [
        "Alias_006",
        "2"
      ],
      [
        "Alias_004",
        "0"
      ],
      [
        "Alias_002",
        "0"
      ],
      [
        "Alias_002",
        "8"
      ],
      [
        "Alias_001",
        "3"
      ],
      [
        "Alias_002",
        "5"
      ],
      [
        "Alias_002",
        "6"
      ],
      [
        "Alias_009",
        "5"
      ],
      [
        "Alias_009",
        "7"
      ],
      [
        "Alias_009",
        "9"
      ],
      [
        "Alias_006",
        "4"
      ],
      [
        "Alias_005",
        "2"
      ],
      [
        "Alias_005",
        "6"
      ],
      [
        "Alias_005",
        "5"
      ],
      [
        "Alias_006",
        "0"
      ],
      [
        "Alias_007",
        "6"
      ],
      [
        "Alias_007",
        "8"
      ],
      [
        "Alias_001",
        "6"
      ],
      [
        "Alias_001",
        "9"
      ],
      [
        "Alias_005",
        "0"
      ],
      [
        "Alias_003",
        "3"
      ],
      [
        "Alias_007",
        "7"
      ],
      [
        "Alias_005",
        "1"
      ],
      [
        "Alias_002",
        "3"
      ],
      [
        "Alias_002",
        "7"
      ],
      [
        "Alias_006",
        "5"
      ],
      [
        "Alias_008",
        "1"
      ],
      [
        "Alias_008",
        "9"
      ],
      [
        "Alias_001",
        "5"
      ],
      [
        "Alias_003",
        "1"
      ],
      [
        "Alias_000",
        "1"
      ],
      [
        "Alias_007",
        "3"
      ],
      [
        "Alias_006",
        "7"
      ],
      [
        "Alias_008",
        "4"
      ],
      [
        "Alias_008",
        "5"
      ],
      [
        "Alias_003",
        "9"
      ],
      [
        "Alias_007",
        "2"
      ],
      [
        "Alias_008",
        "6"
      ],
      [
        "Alias_000",
        "3"
      ],
      [
        "Alias_006",
        "9"
      ],
      [
        "Alias_001",
        "7"
      ],
      [
        "Alias_005",
        "8"
      ],
      [
        "Alias_009",
        "1"
      ],
      [
        "Alias_009",
        "2"
      ],
      [
        "Alias_008",
        "2"
      ],
      [
        "Alias_003",
        "6"
      ],
      [
        "Alias_003",
        "8"
      ],
      [
        "Alias_004",
        "3"
      ],
      [
        "Alias_002",
        "1"
      ],
      [
        "Alias_009",
        "6"
      ],
      [
        "Alias_009",
        "8"
      ],
      [
        "Alias_003",
        "4"
      ],
      [
        "Alias_000",
        "8"
      ],
      [
        "Alias_002",
        "2"
      ],
      [
        "Alias_006",
        "1"
      ],
      [
        "Alias_008",
        "3"
      ],
      [
        "Alias_000",
        "0"
      ],
      [
        "Alias_000",
        "4"
      ],
      [
        "Alias_006",
        "6"
      ],
      [
        "Alias_000",
        "5"
      ],
      [
        "Alias_004",
        "9"
      ],
      [
        "Alias_003",
        "5"
      ],
      [
        "Alias_005",
        "7"
      ],
      [
        "Alias_002",
        "9"
      ],
      [
        "Alias_001",
        "8"
      ],
      [
        "Alias_005",
        "9"
      ],
      [
        "Alias_002",
        "4"
      ],
      [
        "Alias_006",
        "8"
      ],
      [
        "Alias_001",
        "4"
      ],
      [
        "Alias_004",
        "5"
      ],
      [
        "Alias_009",
        "0"
      ],
      [
        "Alias_003",
        "2"
      ],
      [
        "Alias_001",
        "1"
      ],
      [
        "Alias_004",
        "4"
      ],
      [
        "Alias_008",
        "7"
      ],
      [
        "Alias_000",
        "6"
      ],
      [
        "Alias_000",
        "7"
      ],
      [
        "Alias_008",
        "8"
      ],
      [
        "Alias_004",
        "6"
      ],
      [
        "Alias_004",
        "7"
      ],
      [
        "Alias_007",
        "1"
      ],
      [
        "Alias_005",
        "3"
      ],
      [
        "Alias_003",
        "0"
      ],
      [
        "Alias_004",
        "8"
      ],
      [
        "Alias_000",
        "9"
      ],
      [
        "Alias_006",
        "3"
      ],
      [
        "Alias_004",
        "2"
      ],
      [
        "Alias_007",
        "9"
      ],
      [
        "Alias_009",
        "3"
      ],
      [
        "Alias_001",
        "2"
      ],
      [
        "2",
        "4"
      ],
      [
        "5",
        "2"
      ],
      [
        "9",
        "5"
      ],
      [
        "Entity_004",
        "1"
      ],
      [
        "6",
        "6"
      ],
      [
        "Entity_001",
        "8"
      ],
      [
        "5",
        "0"
      ],
      [
        "0",
        "9"
      ],
      [
        "5",
        "3"
      ],
      [
        "5",
        "5"
      ],
      [
        "Entity_005",
        "3"
      ],
      [
        "7",
        "9"
      ],
      [
        "4",
        "0"
      ],
      [
        "Entity_000",
        "1"
      ],
      [
        "0",
        "5"
      ],
      [
        "2",
        "7"
      ],
      [
        "6",
        "7"
      ],
      [
        "Entity_001",
        "1"
      ],
      [
        "9",
        "3"
      ],
      [
        "9",
        "8"
      ],
      [
        "Entity_009",
        "8"
      ],
      [
        "2",
        "9"
      ],
      [
        "6",
        "8"
      ],
      [
        "7",
        "3"
      ],
      [
        "0",
        "2"
      ],
      [
        "6",
        "4"
      ],
      [
        "Entity_008",
        "3"
      ],
      [
        "Entity_002",
        "3"
      ],
      [
        "0",
        "0"
      ],
      [
        "4",
        "4"
      ],
      [
        "2",
        "2"
      ],
      [
        "5",
        "7"
      ],
      [
        "7",
        "0"
      ],
      [
        "7",
        "2"
      ],
      [
        "9",
        "7"
      ],
      [
        "Entity_009",
        "1"
      ],
      [
        "0",
        "6"
      ],
      [
        "2",
        "0"
      ],
      [
        "4",
        "1"
      ],
      [
        "4",
        "2"
      ],
      [
        "5",
        "8"
      ],
      [
        "7",
        "1"
      ],
      [
        "Entity_004",
        "8"
      ],
      [
        "Entity_005",
        "8"
      ],
      [
        "2",
        "6"
      ],
      [
        "2",
        "8"
      ],
      [
        "5",
        "4"
      ],
      [
        "6",
        "2"
      ],
      [
        "Entity_000",
        "3"
      ],
      [
        "Entity_006",
        "1"
      ],
      [
        "Entity_006",
        "8"
      ],
      [
        "Entity_002",
        "1"
      ],
      [
        "0",
        "7"
      ],
      [
        "4",
        "6"
      ],
      [
        "5",
        "1"
      ],
      [
        "9",
        "9"
      ],
      [
        "Entity_000",
        "8"
      ],
      [
        "Entity_006",
        "3"
      ],
      [
        "Entity_009",
        "3"
      ],
      [
        "4",
        "8"
      ],
      [
        "6",
        "3"
      ],
      [
        "7",
        "6"
      ],
      [
        "Entity_003",
        "1"
      ],
      [
        "Entity_003",
        "8"
      ],
      [
        "0",
        "1"
      ],
      [
        "2",
        "5"
      ],
      [
        "6",
        "5"
      ],
      [
        "7",
        "5"
      ],
      [
        "0",
        "8"
      ],
      [
        "4",
        "9"
      ],
      [
        "6",
        "1"
      ],
      [
        "7",
        "4"
      ],
      [
        "7",
        "7"
      ],
      [
        "Entity_001",
        "3"
      ],
      [
        "Entity_003",
        "3"
      ],
      [
        "Entity_004",
        "3"
      ],
      [
        "Entity_007",
        "3"
      ],
      [
        "2",
        "1"
      ],
      [
        "5",
        "6"
      ],
      [
        "Entity_008",
        "8"
      ],
      [
        "4",
        "3"
      ],
      [
        "6",
        "9"
      ],
      [
        "Entity_005",
        "1"
      ],
      [
        "Entity_008",
        "1"
      ],
      [
        "Entity_007",
        "1"
      ],
      [
        "9",
        "4"
      ],
      [
        "4",
        "5"
      ],
      [
        "0",
        "3"
      ],
      [
        "2",
        "3"
      ],
      [
        "0",
        "4"
      ],
      [
        "6",
        "0"
      ],
      [
        "9",
        "0"
      ],
      [
        "9",
        "2"
      ],
      [
        "9",
        "6"
      ],
      [
        "Entity_002",
        "8"
      ],
      [
        "9",
        "1"
      ],
      [
        "4",
        "7"
      ],
      [
        "7",
        "8"
      ],
      [
        "Entity_007",
        "8"
      ],
      [
        "5",
        "9"
      ],
      [
        "Entity_008",
        "95"
      ],
      [
        "Alias_0076",
        "6_0"
      ],
      [
        "Entity_006",
        "07"
      ],
      [
        "Entity_007",
        "95"
      ],
      [
        "Alias_0002",
        "6_0"
      ],
      [
        "Alias_0013",
        "9_0"
      ],
      [
        "Alias_0025",
        "6_1"
      ],
      [
        "Alias_0068",
        "8_1"
      ],
      [
        "Entity_0053",
        "8"
      ],
      [
        "Entity_0001",
        "2"
      ],
      [
        "Entity_000",
        "29"
      ],
      [
        "Entity_005",
        "55"
      ],
      [
        "Entity_008",
        "24"
      ],
      [
        "Entity_002",
        "40"
      ],
      [
        "Entity_002",
        "54"
      ],
      [
        "Alias_0054",
        "2_0"
      ],
      [
        "Alias_0074",
        "1_0"
      ],
      [
        "Alias_0041",
        "0_0"
      ],
      [
        "Alias_0094",
        "3_0"
      ],
      [
        "Alias_0013",
        "3_0"
      ],
      [
        "Alias_0026",
        "3_0"
      ],
      [
        "Alias_0026",
        "3_1"
      ],
      [
        "Alias_0095",
        "5_1"
      ],
      [
        "Alias_0097",
        "0_1"
      ],
      [
        "Alias_0019",
        "9_0"
      ],
      [
        "Alias_0086",
        "2_0"
      ],
      [
        "Alias_0049",
        "0_1"
      ],
      [
        "Entity_0041",
        "2"
      ],
      [
        "Entity_006",
        "76"
      ],
      [
        "Entity_003",
        "26"
      ],
      [
        "Entity_005",
        "79"
      ],
      [
        "Entity_008",
        "74"
      ],
      [
        "Entity_009",
        "52"
      ],
      [
        "Entity_009",
        "98"
      ],
      [
        "Entity_007",
        "42"
      ],
      [
        "Alias_0010",
        "0_0"
      ],
      [
        "Alias_0074",
        "0_1"
      ],
      [
        "Alias_0041",
        "6_0"
      ],
      [
        "Alias_0002",
        "3_0"
      ],
      [
        "Alias_0040",
        "2_0"
      ],
      [
        "Alias_0026",
        "8_0"
      ],
      [
        "Alias_0026",
        "5_0"
      ],
      [
        "Alias_0064",
        "5_0"
      ],
      [
        "Alias_0052",
        "7_1"
      ],
      [
        "Alias_0078",
        "1_1"
      ],
      [
        "Alias_0050",
        "9_0"
      ],
      [
        "Alias_0027",
        "3_0"
      ],
      [
        "Alias_0065",
        "7_1"
      ],
      [
        "Alias_0067",
        "4_0"
      ],
      [
        "Alias_0085",
        "8_1"
      ],
      [
        "Alias_0058",
        "6_1"
      ],
      [
        "Alias_0034",
        "0_1"
      ],
      [
        "Alias_0000",
        "2_0"
      ],
      [
        "Alias_0004",
        "3_0"
      ],
      [
        "Alias_0029",
        "2_0"
      ],
      [
        "Alias_0090",
        "2_0"
      ],
      [
        "Entity_0053",
        "9"
      ],
      [
        "Entity_0098",
        "3"
      ],
      [
        "Entity_0023",
        "7"
      ],
      [
        "Entity_0061",
        "0"
      ],
      [
        "Entity_0063",
        "2"
      ],
      [
        "Entity_001",
        "52"
      ],
      [
        "Entity_001",
        "53"
      ],
      [
        "Entity_001",
        "64"
      ],
      [
        "Entity_001",
        "57"
      ],
      [
        "Entity_000",
        "26"
      ],
      [
        "Entity_000",
        "49"
      ],
      [
        "Entity_006",
        "24"
      ],
      [
        "Entity_006",
        "66"
      ],
      [
        "Entity_006",
        "50"
      ],
      [
        "Entity_003",
        "09"
      ],
      [
        "Entity_003",
        "67"
      ],
      [
        "Entity_005",
        "02"
      ],
      [
        "Entity_005",
        "23"
      ],
      [
        "Entity_008",
        "09"
      ],
      [
        "Entity_008",
        "53"
      ],
      [
        "Entity_008",
        "22"
      ],
      [
        "Entity_009",
        "62"
      ],
      [
        "Entity_009",
        "21"
      ],
      [
        "Entity_007",
        "06"
      ],
      [
        "Alias_0054",
        "8_0"
      ],
      [
        "Alias_0054",
        "7_0"
      ],
      [
        "Alias_0010",
        "2_0"
      ],
      [
        "Alias_0075",
        "0_1"
      ],
      [
        "Alias_0074",
        "6_1"
      ],
      [
        "Alias_0070",
        "7_0"
      ],
      [
        "Alias_0002",
        "5_0"
      ],
      [
        "Alias_0094",
        "9_0"
      ],
      [
        "Alias_0094",
        "9_1"
      ],
      [
        "Alias_0080",
        "3_0"
      ],
      [
        "Alias_0080",
        "1_0"
      ],
      [
        "Alias_0037",
        "4_1"
      ],
      [
        "Alias_0062",
        "3_0"
      ],
      [
        "Alias_0020",
        "6_0"
      ],
      [
        "Alias_0025",
        "9_1"
      ],
      [
        "Alias_0026",
        "4_1"
      ],
      [
        "Alias_0099",
        "8_1"
      ],
      [
        "Alias_0099",
        "0_0"
      ],
      [
        "Alias_0076",
        "7_1"
      ],
      [
        "Alias_0078",
        "6_0"
      ],
      [
        "Alias_0016",
        "4_0"
      ],
      [
        "Alias_0019",
        "1_0"
      ],
      [
        "Alias_0077",
        "2_0"
      ],
      [
        "Alias_0051",
        "5_0"
      ],
      [
        "Alias_0023",
        "6_0"
      ],
      [
        "Alias_0001",
        "1_0"
      ],
      [
        "Alias_0084",
        "3_0"
      ],
      [
        "Alias_0084",
        "7_0"
      ],
      [
        "Alias_0039",
        "8_1"
      ],
      [
        "Alias_0039",
        "5_0"
      ],
      [
        "Alias_0072",
        "9_0"
      ],
      [
        "Alias_0003",
        "1_0"
      ],
      [
        "Alias_0058",
        "2_0"
      ],
      [
        "Alias_0091",
        "5_1"
      ],
      [
        "Alias_0038",
        "6_0"
      ],
      [
        "Alias_0038",
        "8_0"
      ],
      [
        "Alias_0034",
        "7_0"
      ],
      [
        "Alias_0061",
        "9_0"
      ],
      [
        "Alias_0029",
        "8_0"
      ],
      [
        "Alias_0018",
        "8_1"
      ],
      [
        "Alias_0059",
        "6_0"
      ],
      [
        "Alias_0014",
        "8_0"
      ],
      [
        "Alias_0044",
        "5_0"
      ],
      [
        "Alias_0007",
        "3_1"
      ],
      [
        "Alias_0088",
        "4_0"
      ],
      [
        "Entity_0018",
        "0"
      ],
      [
        "Entity_0018",
        "7"
      ],
      [
        "Entity_0008",
        "9"
      ],
      [
        "Entity_0081",
        "9"
      ],
      [
        "Entity_0071",
        "6"
      ],
      [
        "Entity_001",
        "55"
      ],
      [
        "Entity_001",
        "05"
      ],
      [
        "Entity_001",
        "99"
      ],
      [
        "Entity_000",
        "24"
      ],
      [
        "Entity_000",
        "02"
      ],
      [
        "Entity_006",
        "46"
      ],
      [
        "Entity_006",
        "92"
      ],
      [
        "Entity_003",
        "24"
      ],
      [
        "Entity_003",
        "52"
      ],
      [
        "Entity_003",
        "55"
      ],
      [
        "Entity_003",
        "73"
      ],
      [
        "Entity_004",
        "46"
      ],
      [
        "Entity_005",
        "64"
      ],
      [
        "Entity_005",
        "63"
      ],
      [
        "Entity_008",
        "50"
      ],
      [
        "Entity_008",
        "48"
      ],
      [
        "Entity_009",
        "95"
      ],
      [
        "Entity_009",
        "79"
      ],
      [
        "Entity_007",
        "27"
      ],
      [
        "Entity_007",
        "57"
      ],
      [
        "Entity_007",
        "28"
      ],
      [
        "Entity_002",
        "24"
      ],
      [
        "Entity_002",
        "66"
      ],
      [
        "Alias_0054",
        "7_1"
      ],
      [
        "Alias_0054",
        "5_1"
      ],
      [
        "Alias_0010",
        "9_0"
      ],
      [
        "Alias_0010",
        "7_0"
      ],
      [
        "Alias_0010",
        "7_1"
      ],
      [
        "Alias_0075",
        "9_0"
      ],
      [
        "Alias_0075",
        "0_0"
      ],
      [
        "Alias_0074",
        "7_0"
      ],
      [
        "Alias_0070",
        "2_1"
      ],
      [
        "Alias_0070",
        "1_1"
      ],
      [
        "Alias_0041",
        "9_1"
      ],
      [
        "Alias_0080",
        "6_0"
      ],
      [
        "Alias_0080",
        "7_0"
      ],
      [
        "Alias_0037",
        "1_1"
      ],
      [
        "Alias_0037",
        "5_1"
      ],
      [
        "Alias_0020",
        "3_0"
      ],
      [
        "Alias_0028",
        "3_1"
      ],
      [
        "Alias_0095",
        "9_1"
      ],
      [
        "Alias_0097",
        "1_1"
      ],
      [
        "Alias_0064",
        "4_1"
      ],
      [
        "Alias_0064",
        "6_1"
      ],
      [
        "Alias_0056",
        "9_0"
      ],
      [
        "Alias_0056",
        "7_1"
      ],
      [
        "Alias_0078",
        "8_0"
      ],
      [
        "Alias_0078",
        "9_1"
      ],
      [
        "Alias_0016",
        "9_0"
      ],
      [
        "Alias_0016",
        "5_1"
      ],
      [
        "Alias_0050",
        "6_0"
      ],
      [
        "Alias_0050",
        "3_1"
      ],
      [
        "Alias_0033",
        "7_1"
      ],
      [
        "Alias_0051",
        "7_0"
      ],
      [
        "Alias_0051",
        "5_1"
      ],
      [
        "Alias_0023",
        "7_1"
      ],
      [
        "Alias_0023",
        "1_0"
      ],
      [
        "Alias_0081",
        "9_0"
      ],
      [
        "Alias_0081",
        "1_0"
      ],
      [
        "Alias_0015",
        "3_1"
      ],
      [
        "Alias_0015",
        "1_0"
      ],
      [
        "Alias_0072",
        "8_0"
      ],
      [
        "Alias_0072",
        "0_1"
      ],
      [
        "Alias_0069",
        "5_0"
      ],
      [
        "Alias_0017",
        "1_0"
      ],
      [
        "Alias_0091",
        "6_0"
      ],
      [
        "Alias_0091",
        "3_1"
      ],
      [
        "Alias_0092",
        "9_1"
      ],
      [
        "Alias_0092",
        "5_1"
      ],
      [
        "Alias_0082",
        "6_0"
      ],
      [
        "Alias_0036",
        "9_0"
      ],
      [
        "Alias_0036",
        "4_1"
      ],
      [
        "Alias_0036",
        "5_1"
      ],
      [
        "Alias_0038",
        "0_1"
      ],
      [
        "Alias_0038",
        "9_1"
      ],
      [
        "Alias_0096",
        "4_1"
      ],
      [
        "Alias_0096",
        "3_1"
      ],
      [
        "Alias_0098",
        "0_0"
      ],
      [
        "Alias_0022",
        "3_0"
      ],
      [
        "Alias_0083",
        "9_0"
      ],
      [
        "Alias_0066",
        "0_1"
      ],
      [
        "Alias_0049",
        "2_1"
      ],
      [
        "Alias_0035",
        "8_1"
      ],
      [
        "Alias_0057",
        "4_0"
      ],
      [
        "Alias_0029",
        "7_1"
      ],
      [
        "Alias_0045",
        "3_0"
      ],
      [
        "Alias_0090",
        "4_0"
      ],
      [
        "Alias_0007",
        "5_1"
      ],
      [
        "Alias_0046",
        "1_1"
      ],
      [
        "Alias_0047",
        "9_0"
      ],
      [
        "Alias_0071",
        "8_1"
      ],
      [
        "Alias_0063",
        "4_0"
      ],
      [
        "Entity_0041",
        "5"
      ],
      [
        "Entity_0018",
        "6"
      ],
      [
        "Entity_0091",
        "5"
      ],
      [
        "Entity_0091",
        "8"
      ],
      [
        "Entity_0003",
        "2"
      ],
      [
        "Entity_0021",
        "6"
      ],
      [
        "Entity_0093",
        "1"
      ],
      [
        "Entity_0031",
        "6"
      ],
      [
        "Entity_0013",
        "9"
      ],
      [
        "Entity_0073",
        "4"
      ],
      [
        "Entity_0088",
        "8"
      ],
      [
        "Entity_0028",
        "6"
      ],
      [
        "Entity_001",
        "68"
      ],
      [
        "Entity_001",
        "48"
      ],
      [
        "Entity_001",
        "01"
      ],
      [
        "Entity_001",
        "43"
      ],
      [
        "Entity_000",
        "52"
      ],
      [
        "Entity_000",
        "44"
      ],
      [
        "Entity_000",
        "72"
      ],
      [
        "Entity_000",
        "06"
      ],
      [
        "Entity_000",
        "51"
      ],
      [
        "Entity_000",
        "04"
      ],
      [
        "Entity_000",
        "92"
      ],
      [
        "Entity_006",
        "95"
      ],
      [
        "Entity_006",
        "05"
      ],
      [
        "Entity_006",
        "68"
      ],
      [
        "Entity_006",
        "91"
      ],
      [
        "Entity_003",
        "66"
      ],
      [
        "Entity_003",
        "93"
      ],
      [
        "Entity_003",
        "98"
      ],
      [
        "Entity_003",
        "29"
      ],
      [
        "Entity_004",
        "95"
      ],
      [
        "Entity_004",
        "50"
      ],
      [
        "Entity_004",
        "53"
      ],
      [
        "Entity_004",
        "79"
      ],
      [
        "Entity_004",
        "73"
      ],
      [
        "Entity_004",
        "65"
      ],
      [
        "Entity_004",
        "94"
      ],
      [
        "Entity_005",
        "73"
      ],
      [
        "Entity_005",
        "22"
      ],
      [
        "Entity_005",
        "25"
      ],
      [
        "Entity_008",
        "67"
      ],
      [
        "Entity_008",
        "93"
      ],
      [
        "Entity_009",
        "99"
      ],
      [
        "Entity_009",
        "63"
      ],
      [
        "Entity_007",
        "55"
      ],
      [
        "Entity_007",
        "40"
      ],
      [
        "Entity_007",
        "05"
      ],
      [
        "Entity_007",
        "02"
      ],
      [
        "Entity_007",
        "58"
      ],
      [
        "Entity_002",
        "52"
      ],
      [
        "Entity_002",
        "50"
      ],
      [
        "Entity_002",
        "44"
      ],
      [
        "Entity_002",
        "71"
      ],
      [
        "Entity_002",
        "01"
      ],
      [
        "Entity_002",
        "77"
      ],
      [
        "Entity_002",
        "69"
      ],
      [
        "Alias_0054",
        "2_1"
      ],
      [
        "Alias_0010",
        "5_1"
      ],
      [
        "Alias_0075",
        "8_1"
      ],
      [
        "Alias_0075",
        "4_1"
      ],
      [
        "Alias_0075",
        "7_0"
      ],
      [
        "Alias_0075",
        "7_1"
      ],
      [
        "Alias_0070",
        "4_1"
      ],
      [
        "Alias_0041",
        "4_1"
      ],
      [
        "Alias_0041",
        "7_1"
      ],
      [
        "Alias_0002",
        "4_1"
      ],
      [
        "Alias_0080",
        "2_1"
      ],
      [
        "Alias_0037",
        "6_0"
      ],
      [
        "Alias_0037",
        "8_1"
      ],
      [
        "Alias_0062",
        "1_1"
      ],
      [
        "Alias_0062",
        "7_1"
      ],
      [
        "Alias_0062",
        "6_1"
      ],
      [
        "Alias_0040",
        "8_1"
      ],
      [
        "Alias_0040",
        "4_1"
      ],
      [
        "Alias_0040",
        "3_1"
      ],
      [
        "Alias_0040",
        "7_1"
      ],
      [
        "Alias_0040",
        "4_0"
      ],
      [
        "Alias_0020",
        "4_1"
      ],
      [
        "Alias_0020",
        "5_0"
      ],
      [
        "Alias_0028",
        "2_0"
      ],
      [
        "Alias_0028",
        "8_0"
      ],
      [
        "Alias_0028",
        "0_1"
      ],
      [
        "Alias_0028",
        "7_0"
      ],
      [
        "Alias_0013",
        "6_0"
      ],
      [
        "Alias_0013",
        "6_1"
      ],
      [
        "Alias_0025",
        "4_0"
      ],
      [
        "Alias_0095",
        "6_1"
      ],
      [
        "Alias_0097",
        "2_1"
      ],
      [
        "Alias_0099",
        "4_1"
      ],
      [
        "Alias_0099",
        "3_1"
      ],
      [
        "Alias_0052",
        "6_0"
      ],
      [
        "Alias_0052",
        "5_0"
      ],
      [
        "Alias_0056",
        "8_1"
      ],
      [
        "Alias_0056",
        "3_1"
      ],
      [
        "Alias_0056",
        "7_0"
      ],
      [
        "Alias_0055",
        "6_1"
      ],
      [
        "Alias_0060",
        "6_0"
      ],
      [
        "Alias_0060",
        "8_1"
      ],
      [
        "Alias_0060",
        "2_0"
      ],
      [
        "Alias_0060",
        "6_1"
      ],
      [
        "Alias_0060",
        "5_1"
      ],
      [
        "Alias_0060",
        "1_0"
      ],
      [
        "Alias_0076",
        "2_1"
      ],
      [
        "Alias_0076",
        "9_1"
      ],
      [
        "Alias_0019",
        "8_0"
      ],
      [
        "Alias_0019",
        "9_1"
      ],
      [
        "Alias_0019",
        "5_0"
      ],
      [
        "Alias_0050",
        "1_1"
      ],
      [
        "Alias_0033",
        "3_0"
      ],
      [
        "Alias_0033",
        "4_0"
      ],
      [
        "Alias_0077",
        "6_1"
      ],
      [
        "Alias_0051",
        "6_0"
      ],
      [
        "Alias_0023",
        "4_1"
      ],
      [
        "Alias_0027",
        "5_0"
      ],
      [
        "Alias_0027",
        "4_0"
      ],
      [
        "Alias_0065",
        "2_0"
      ],
      [
        "Alias_0081",
        "3_1"
      ],
      [
        "Alias_0081",
        "9_1"
      ],
      [
        "Alias_0089",
        "2_1"
      ],
      [
        "Alias_0089",
        "8_0"
      ],
      [
        "Alias_0015",
        "6_0"
      ],
      [
        "Alias_0031",
        "9_0"
      ],
      [
        "Alias_0001",
        "7_1"
      ],
      [
        "Alias_0073",
        "6_0"
      ],
      [
        "Alias_0073",
        "1_1"
      ],
      [
        "Alias_0073",
        "1_0"
      ],
      [
        "Alias_0067",
        "9_0"
      ],
      [
        "Alias_0084",
        "6_0"
      ],
      [
        "Alias_0084",
        "0_0"
      ],
      [
        "Alias_0085",
        "4_0"
      ],
      [
        "Alias_0039",
        "6_1"
      ],
      [
        "Alias_0003",
        "8_0"
      ],
      [
        "Alias_0069",
        "4_1"
      ],
      [
        "Alias_0017",
        "3_0"
      ],
      [
        "Alias_0017",
        "0_1"
      ],
      [
        "Alias_0017",
        "0_0"
      ],
      [
        "Alias_0058",
        "0_1"
      ],
      [
        "Alias_0092",
        "6_0"
      ],
      [
        "Alias_0082",
        "8_1"
      ],
      [
        "Alias_0082",
        "4_1"
      ],
      [
        "Alias_0082",
        "8_0"
      ],
      [
        "Alias_0038",
        "4_1"
      ],
      [
        "Alias_0038",
        "7_1"
      ],
      [
        "Alias_0043",
        "4_1"
      ],
      [
        "Alias_0043",
        "1_0"
      ],
      [
        "Alias_0021",
        "2_1"
      ],
      [
        "Alias_0021",
        "4_0"
      ],
      [
        "Alias_0096",
        "8_1"
      ],
      [
        "Alias_0034",
        "1_1"
      ],
      [
        "Alias_0008",
        "2_1"
      ],
      [
        "Alias_0022",
        "1_1"
      ],
      [
        "Alias_0061",
        "1_1"
      ],
      [
        "Alias_0083",
        "0_0"
      ],
      [
        "Alias_0000",
        "2_1"
      ],
      [
        "Alias_0004",
        "2_1"
      ],
      [
        "Alias_0066",
        "4_1"
      ],
      [
        "Alias_0066",
        "3_1"
      ],
      [
        "Alias_0005",
        "8_1"
      ],
      [
        "Alias_0005",
        "2_1"
      ],
      [
        "Alias_0035",
        "7_0"
      ],
      [
        "Alias_0057",
        "5_0"
      ],
      [
        "Alias_0029",
        "8_1"
      ],
      [
        "Alias_0029",
        "5_1"
      ],
      [
        "Alias_0018",
        "7_1"
      ],
      [
        "Alias_0059",
        "8_0"
      ],
      [
        "Alias_0068",
        "6_0"
      ],
      [
        "Alias_0045",
        "0_1"
      ],
      [
        "Alias_0090",
        "6_0"
      ],
      [
        "Alias_0032",
        "3_1"
      ],
      [
        "Alias_0032",
        "2_1"
      ],
      [
        "Alias_0011",
        "2_1"
      ],
      [
        "Alias_0011",
        "5_0"
      ],
      [
        "Alias_0044",
        "3_1"
      ],
      [
        "Alias_0087",
        "5_1"
      ],
      [
        "Alias_0046",
        "0_1"
      ],
      [
        "Alias_0071",
        "9_0"
      ],
      [
        "Alias_0053",
        "2_1"
      ],
      [
        "Alias_0048",
        "3_0"
      ],
      [
        "Alias_0048",
        "7_0"
      ],
      [
        "Alias_0009",
        "6_0"
      ],
      [
        "Alias_0063",
        "7_0"
      ],
      [
        "Alias_0042",
        "3_0"
      ],
      [
        "Alias_0093",
        "2_0"
      ],
      [
        "Alias_0012",
        "4_0"
      ],
      [
        "Entity_0041",
        "3"
      ],
      [
        "Entity_0041",
        "6"
      ],
      [
        "Entity_0018",
        "5"
      ],
      [
        "Entity_0053",
        "4"
      ],
      [
        "Entity_0001",
        "4"
      ],
      [
        "Entity_0011",
        "4"
      ],
      [
        "Entity_0011",
        "6"
      ],
      [
        "Entity_0083",
        "0"
      ],
      [
        "Entity_0083",
        "8"
      ],
      [
        "Entity_0048",
        "4"
      ],
      [
        "Entity_0058",
        "0"
      ],
      [
        "Entity_0068",
        "4"
      ],
      [
        "Entity_0068",
        "6"
      ],
      [
        "Entity_0021",
        "2"
      ],
      [
        "Entity_0008",
        "8"
      ],
      [
        "Entity_0093",
        "2"
      ],
      [
        "Entity_0038",
        "0"
      ],
      [
        "Entity_0033",
        "9"
      ],
      [
        "Entity_0043",
        "7"
      ],
      [
        "Entity_0088",
        "2"
      ],
      [
        "Entity_0051",
        "3"
      ],
      [
        "Entity_0051",
        "7"
      ],
      [
        "Entity_0081",
        "1"
      ],
      [
        "Entity_001",
        "24"
      ],
      [
        "Entity_001",
        "66"
      ],
      [
        "Entity_001",
        "50"
      ],
      [
        "Entity_001",
        "40"
      ],
      [
        "Entity_001",
        "29"
      ],
      [
        "Entity_001",
        "44"
      ],
      [
        "Entity_001",
        "97"
      ],
      [
        "Entity_001",
        "41"
      ],
      [
        "Entity_001",
        "54"
      ],
      [
        "Entity_001",
        "77"
      ],
      [
        "Entity_001",
        "21"
      ],
      [
        "Entity_001",
        "69"
      ],
      [
        "Entity_000",
        "27"
      ],
      [
        "Entity_000",
        "68"
      ],
      [
        "Entity_000",
        "20"
      ],
      [
        "Entity_000",
        "42"
      ],
      [
        "Entity_000",
        "71"
      ],
      [
        "Entity_000",
        "28"
      ],
      [
        "Entity_000",
        "76"
      ],
      [
        "Entity_000",
        "01"
      ],
      [
        "Entity_000",
        "65"
      ],
      [
        "Entity_000",
        "96"
      ],
      [
        "Entity_006",
        "70"
      ],
      [
        "Entity_006",
        "97"
      ],
      [
        "Entity_006",
        "06"
      ],
      [
        "Entity_006",
        "71"
      ],
      [
        "Entity_003",
        "40"
      ],
      [
        "Entity_003",
        "44"
      ],
      [
        "Entity_003",
        "57"
      ],
      [
        "Entity_003",
        "70"
      ],
      [
        "Entity_003",
        "58"
      ],
      [
        "Entity_003",
        "61"
      ],
      [
        "Entity_003",
        "94"
      ],
      [
        "Entity_004",
        "27"
      ],
      [
        "Entity_004",
        "67"
      ],
      [
        "Entity_004",
        "93"
      ],
      [
        "Entity_004",
        "72"
      ],
      [
        "Entity_004",
        "41"
      ],
      [
        "Entity_004",
        "71"
      ],
      [
        "Entity_004",
        "01"
      ],
      [
        "Entity_004",
        "49"
      ],
      [
        "Entity_004",
        "21"
      ],
      [
        "Entity_005",
        "09"
      ],
      [
        "Entity_005",
        "93"
      ],
      [
        "Entity_005",
        "46"
      ],
      [
        "Entity_005",
        "90"
      ],
      [
        "Entity_005",
        "91"
      ],
      [
        "Entity_008",
        "27"
      ],
      [
        "Entity_008",
        "68"
      ],
      [
        "Entity_008",
        "73"
      ],
      [
        "Entity_008",
        "00"
      ],
      [
        "Entity_008",
        "62"
      ],
      [
        "Entity_008",
        "51"
      ],
      [
        "Entity_008",
        "25"
      ],
      [
        "Entity_008",
        "75"
      ],
      [
        "Entity_008",
        "45"
      ],
      [
        "Entity_009",
        "66"
      ],
      [
        "Entity_009",
        "09"
      ],
      [
        "Entity_009",
        "68"
      ],
      [
        "Entity_009",
        "02"
      ],
      [
        "Entity_009",
        "00"
      ],
      [
        "Entity_009",
        "72"
      ],
      [
        "Entity_009",
        "06"
      ],
      [
        "Entity_009",
        "41"
      ],
      [
        "Entity_009",
        "54"
      ],
      [
        "Entity_009",
        "59"
      ],
      [
        "Entity_007",
        "50"
      ],
      [
        "Entity_007",
        "09"
      ],
      [
        "Entity_007",
        "70"
      ],
      [
        "Entity_007",
        "97"
      ],
      [
        "Entity_007",
        "65"
      ],
      [
        "Entity_007",
        "08"
      ],
      [
        "Entity_002",
        "79"
      ],
      [
        "Entity_002",
        "98"
      ],
      [
        "Entity_002",
        "23"
      ],
      [
        "Entity_002",
        "92"
      ],
      [
        "Alias_0054",
        "3_0"
      ],
      [
        "Alias_0054",
        "3_1"
      ],
      [
        "Alias_0054",
        "6_1"
      ],
      [
        "Alias_0010",
        "3_0"
      ],
      [
        "Alias_0010",
        "2_1"
      ],
      [
        "Alias_0010",
        "0_1"
      ],
      [
        "Alias_0075",
        "3_0"
      ],
      [
        "Alias_0075",
        "1_1"
      ],
      [
        "Alias_0074",
        "1_1"
      ],
      [
        "Alias_0074",
        "9_1"
      ],
      [
        "Alias_0070",
        "9_0"
      ],
      [
        "Alias_0070",
        "5_1"
      ],
      [
        "Alias_0070",
        "1_0"
      ],
      [
        "Alias_0041",
        "2_0"
      ],
      [
        "Alias_0002",
        "7_1"
      ],
      [
        "Alias_0002",
        "6_1"
      ],
      [
        "Alias_0094",
        "5_0"
      ],
      [
        "Alias_0080",
        "8_0"
      ],
      [
        "Alias_0080",
        "9_1"
      ],
      [
        "Alias_0062",
        "2_0"
      ],
      [
        "Alias_0062",
        "2_1"
      ],
      [
        "Alias_0062",
        "0_0"
      ],
      [
        "Alias_0040",
        "6_1"
      ],
      [
        "Alias_0020",
        "2_1"
      ],
      [
        "Alias_0020",
        "9_1"
      ],
      [
        "Alias_0028",
        "6_0"
      ],
      [
        "Alias_0028",
        "5_1"
      ],
      [
        "Alias_0013",
        "4_1"
      ],
      [
        "Alias_0013",
        "5_0"
      ],
      [
        "Alias_0025",
        "6_0"
      ],
      [
        "Alias_0025",
        "8_1"
      ],
      [
        "Alias_0025",
        "0_1"
      ],
      [
        "Alias_0025",
        "7_1"
      ],
      [
        "Alias_0095",
        "7_1"
      ],
      [
        "Alias_0097",
        "2_0"
      ],
      [
        "Alias_0097",
        "8_0"
      ],
      [
        "Alias_0097",
        "7_0"
      ],
      [
        "Alias_0099",
        "6_1"
      ],
      [
        "Alias_0064",
        "9_0"
      ],
      [
        "Alias_0064",
        "1_1"
      ],
      [
        "Alias_0064",
        "7_0"
      ],
      [
        "Alias_0052",
        "8_1"
      ],
      [
        "Alias_0052",
        "2_1"
      ],
      [
        "Alias_0052",
        "0_1"
      ],
      [
        "Alias_0052",
        "1_0"
      ],
      [
        "Alias_0056",
        "9_1"
      ],
      [
        "Alias_0056",
        "5_0"
      ],
      [
        "Alias_0055",
        "6_0"
      ],
      [
        "Alias_0055",
        "3_1"
      ],
      [
        "Alias_0076",
        "2_0"
      ],
      [
        "Alias_0078",
        "4_1"
      ],
      [
        "Alias_0078",
        "0_0"
      ],
      [
        "Alias_0019",
        "6_0"
      ],
      [
        "Alias_0019",
        "4_1"
      ],
      [
        "Alias_0019",
        "1_1"
      ],
      [
        "Alias_0050",
        "0_0"
      ],
      [
        "Alias_0033",
        "4_1"
      ],
      [
        "Alias_0051",
        "4_1"
      ],
      [
        "Alias_0051",
        "1_1"
      ],
      [
        "Alias_0023",
        "6_1"
      ],
      [
        "Alias_0023",
        "5_1"
      ],
      [
        "Alias_0027",
        "0_0"
      ],
      [
        "Alias_0065",
        "4_1"
      ],
      [
        "Alias_0065",
        "3_1"
      ],
      [
        "Alias_0065",
        "0_1"
      ],
      [
        "Alias_0065",
        "5_1"
      ],
      [
        "Alias_0081",
        "2_0"
      ],
      [
        "Alias_0081",
        "4_0"
      ],
      [
        "Alias_0089",
        "6_0"
      ],
      [
        "Alias_0089",
        "3_0"
      ],
      [
        "Alias_0089",
        "4_1"
      ],
      [
        "Alias_0089",
        "1_0"
      ],
      [
        "Alias_0015",
        "2_1"
      ],
      [
        "Alias_0015",
        "1_1"
      ],
      [
        "Alias_0031",
        "8_1"
      ],
      [
        "Alias_0031",
        "2_1"
      ],
      [
        "Alias_0031",
        "8_0"
      ],
      [
        "Alias_0031",
        "4_0"
      ],
      [
        "Alias_0073",
        "3_1"
      ],
      [
        "Alias_0073",
        "0_1"
      ],
      [
        "Alias_0067",
        "6_0"
      ],
      [
        "Alias_0084",
        "4_0"
      ],
      [
        "Alias_0085",
        "6_0"
      ],
      [
        "Alias_0085",
        "8_0"
      ],
      [
        "Alias_0039",
        "6_0"
      ],
      [
        "Alias_0039",
        "8_0"
      ],
      [
        "Alias_0072",
        "4_1"
      ],
      [
        "Alias_0086",
        "3_1"
      ],
      [
        "Alias_0003",
        "6_0"
      ],
      [
        "Alias_0003",
        "2_0"
      ],
      [
        "Alias_0003",
        "3_1"
      ],
      [
        "Alias_0069",
        "7_1"
      ],
      [
        "Alias_0069",
        "0_0"
      ],
      [
        "Alias_0017",
        "6_0"
      ],
      [
        "Alias_0017",
        "8_1"
      ],
      [
        "Alias_0058",
        "5_0"
      ],
      [
        "Alias_0058",
        "1_0"
      ],
      [
        "Alias_0092",
        "3_1"
      ],
      [
        "Alias_0092",
        "8_0"
      ],
      [
        "Alias_0092",
        "6_1"
      ],
      [
        "Alias_0092",
        "1_0"
      ],
      [
        "Alias_0036",
        "2_1"
      ],
      [
        "Alias_0043",
        "8_1"
      ],
      [
        "Alias_0043",
        "1_1"
      ],
      [
        "Alias_0021",
        "9_0"
      ],
      [
        "Alias_0021",
        "0_0"
      ],
      [
        "Alias_0096",
        "3_0"
      ],
      [
        "Alias_0096",
        "4_0"
      ],
      [
        "Alias_0098",
        "3_0"
      ],
      [
        "Alias_0098",
        "6_1"
      ],
      [
        "Alias_0098",
        "4_0"
      ],
      [
        "Alias_0008",
        "2_0"
      ],
      [
        "Alias_0008",
        "7_0"
      ],
      [
        "Alias_0083",
        "7_1"
      ],
      [
        "Alias_0000",
        "7_1"
      ],
      [
        "Alias_0000",
        "6_1"
      ],
      [
        "Alias_0004",
        "8_1"
      ],
      [
        "Alias_0004",
        "8_0"
      ],
      [
        "Alias_0066",
        "8_1"
      ],
      [
        "Alias_0005",
        "1_1"
      ],
      [
        "Alias_0005",
        "7_0"
      ],
      [
        "Alias_0005",
        "4_0"
      ],
      [
        "Alias_0049",
        "8_1"
      ],
      [
        "Alias_0049",
        "1_1"
      ],
      [
        "Alias_0035",
        "9_1"
      ],
      [
        "Alias_0035",
        "5_0"
      ],
      [
        "Alias_0057",
        "0_1"
      ],
      [
        "Alias_0018",
        "5_0"
      ],
      [
        "Alias_0024",
        "8_1"
      ],
      [
        "Alias_0024",
        "7_1"
      ],
      [
        "Alias_0024",
        "4_0"
      ],
      [
        "Alias_0045",
        "6_0"
      ],
      [
        "Alias_0045",
        "8_1"
      ],
      [
        "Alias_0045",
        "4_1"
      ],
      [
        "Alias_0045",
        "0_0"
      ],
      [
        "Alias_0090",
        "8_1"
      ],
      [
        "Alias_0032",
        "2_0"
      ],
      [
        "Alias_0011",
        "1_0"
      ],
      [
        "Alias_0044",
        "9_0"
      ],
      [
        "Alias_0044",
        "2_0"
      ],
      [
        "Alias_0044",
        "8_0"
      ],
      [
        "Alias_0006",
        "6_0"
      ],
      [
        "Alias_0007",
        "3_0"
      ],
      [
        "Alias_0088",
        "9_0"
      ],
      [
        "Alias_0088",
        "3_1"
      ],
      [
        "Alias_0088",
        "5_1"
      ],
      [
        "Alias_0047",
        "4_1"
      ],
      [
        "Alias_0047",
        "8_0"
      ],
      [
        "Alias_0071",
        "2_1"
      ],
      [
        "Alias_0071",
        "6_1"
      ],
      [
        "Alias_0071",
        "5_1"
      ],
      [
        "Alias_0053",
        "7_1"
      ],
      [
        "Alias_0053",
        "6_1"
      ],
      [
        "Alias_0030",
        "3_0"
      ],
      [
        "Alias_0030",
        "9_0"
      ],
      [
        "Alias_0030",
        "5_1"
      ],
      [
        "Alias_0030",
        "4_0"
      ],
      [
        "Alias_0048",
        "4_1"
      ],
      [
        "Alias_0048",
        "8_0"
      ],
      [
        "Alias_0009",
        "8_1"
      ],
      [
        "Alias_0009",
        "7_1"
      ],
      [
        "Alias_0079",
        "3_0"
      ],
      [
        "Alias_0079",
        "8_0"
      ],
      [
        "Alias_0079",
        "1_1"
      ],
      [
        "Alias_0093",
        "2_1"
      ],
      [
        "Alias_0012",
        "1_1"
      ],
      [
        "Entity_0041",
        "8"
      ],
      [
        "Entity_0053",
        "3"
      ],
      [
        "Entity_0001",
        "9"
      ],
      [
        "Entity_0011",
        "9"
      ],
      [
        "Entity_0098",
        "0"
      ],
      [
        "Entity_0098",
        "2"
      ],
      [
        "Entity_0098",
        "8"
      ],
      [
        "Entity_0083",
        "2"
      ],
      [
        "Entity_0083",
        "4"
      ],
      [
        "Entity_0023",
        "8"
      ],
      [
        "Entity_0091",
        "4"
      ],
      [
        "Entity_0048",
        "3"
      ],
      [
        "Entity_0061",
        "5"
      ],
      [
        "Entity_0061",
        "9"
      ],
      [
        "Entity_0021",
        "3"
      ],
      [
        "Entity_0008",
        "6"
      ],
      [
        "Entity_0063",
        "6"
      ],
      [
        "Entity_0063",
        "7"
      ],
      [
        "Entity_0093",
        "0"
      ],
      [
        "Entity_0013",
        "8"
      ],
      [
        "Entity_0033",
        "4"
      ],
      [
        "Entity_0033",
        "6"
      ],
      [
        "Entity_0043",
        "2"
      ],
      [
        "Entity_0073",
        "1"
      ],
      [
        "Entity_0073",
        "5"
      ],
      [
        "Entity_0081",
        "3"
      ],
      [
        "Entity_001",
        "79"
      ],
      [
        "Entity_001",
        "98"
      ],
      [
        "Entity_001",
        "72"
      ],
      [
        "Entity_001",
        "28"
      ],
      [
        "Entity_001",
        "65"
      ],
      [
        "Entity_000",
        "66"
      ],
      [
        "Entity_000",
        "40"
      ],
      [
        "Entity_000",
        "67"
      ],
      [
        "Entity_000",
        "57"
      ],
      [
        "Entity_000",
        "97"
      ],
      [
        "Entity_000",
        "75"
      ],
      [
        "Entity_000",
        "56"
      ],
      [
        "Entity_000",
        "43"
      ],
      [
        "Entity_000",
        "78"
      ],
      [
        "Entity_006",
        "09"
      ],
      [
        "Entity_006",
        "79"
      ],
      [
        "Entity_006",
        "93"
      ],
      [
        "Entity_006",
        "64"
      ],
      [
        "Entity_006",
        "20"
      ],
      [
        "Entity_006",
        "41"
      ],
      [
        "Entity_006",
        "58"
      ],
      [
        "Entity_006",
        "63"
      ],
      [
        "Entity_006",
        "03"
      ],
      [
        "Entity_003",
        "50"
      ],
      [
        "Entity_003",
        "53"
      ],
      [
        "Entity_003",
        "64"
      ],
      [
        "Entity_003",
        "00"
      ],
      [
        "Entity_003",
        "22"
      ],
      [
        "Entity_003",
        "06"
      ],
      [
        "Entity_003",
        "20"
      ],
      [
        "Entity_003",
        "07"
      ],
      [
        "Entity_003",
        "51"
      ],
      [
        "Entity_003",
        "75"
      ],
      [
        "Entity_003",
        "21"
      ],
      [
        "Entity_003",
        "56"
      ],
      [
        "Entity_003",
        "03"
      ],
      [
        "Entity_004",
        "52"
      ],
      [
        "Entity_004",
        "40"
      ],
      [
        "Entity_004",
        "05"
      ],
      [
        "Entity_004",
        "68"
      ],
      [
        "Entity_004",
        "26"
      ],
      [
        "Entity_004",
        "54"
      ],
      [
        "Entity_004",
        "48"
      ],
      [
        "Entity_004",
        "77"
      ],
      [
        "Entity_004",
        "69"
      ],
      [
        "Entity_004",
        "60"
      ],
      [
        "Entity_005",
        "50"
      ],
      [
        "Entity_005",
        "29"
      ],
      [
        "Entity_005",
        "00"
      ],
      [
        "Entity_005",
        "70"
      ],
      [
        "Entity_005",
        "97"
      ],
      [
        "Entity_005",
        "58"
      ],
      [
        "Entity_005",
        "99"
      ],
      [
        "Entity_005",
        "21"
      ],
      [
        "Entity_008",
        "55"
      ],
      [
        "Entity_008",
        "40"
      ],
      [
        "Entity_008",
        "64"
      ],
      [
        "Entity_008",
        "20"
      ],
      [
        "Entity_008",
        "49"
      ],
      [
        "Entity_008",
        "61"
      ],
      [
        "Entity_008",
        "56"
      ],
      [
        "Entity_008",
        "90"
      ],
      [
        "Entity_009",
        "24"
      ],
      [
        "Entity_009",
        "40"
      ],
      [
        "Entity_009",
        "27"
      ],
      [
        "Entity_009",
        "57"
      ],
      [
        "Entity_009",
        "49"
      ],
      [
        "Entity_009",
        "74"
      ],
      [
        "Entity_009",
        "04"
      ],
      [
        "Entity_009",
        "60"
      ],
      [
        "Entity_009",
        "47"
      ],
      [
        "Entity_007",
        "53"
      ],
      [
        "Entity_007",
        "79"
      ],
      [
        "Entity_007",
        "67"
      ],
      [
        "Entity_007",
        "29"
      ],
      [
        "Entity_007",
        "22"
      ],
      [
        "Entity_007",
        "48"
      ],
      [
        "Entity_007",
        "43"
      ],
      [
        "Entity_002",
        "95"
      ],
      [
        "Entity_002",
        "27"
      ],
      [
        "Entity_002",
        "70"
      ],
      [
        "Entity_002",
        "97"
      ],
      [
        "Entity_002",
        "28"
      ],
      [
        "Entity_002",
        "74"
      ],
      [
        "Entity_002",
        "56"
      ],
      [
        "Alias_0010",
        "6_0"
      ],
      [
        "Alias_0010",
        "8_1"
      ],
      [
        "Alias_0075",
        "9_1"
      ],
      [
        "Alias_0075",
        "1_0"
      ],
      [
        "Alias_0074",
        "3_0"
      ],
      [
        "Alias_0074",
        "2_1"
      ],
      [
        "Alias_0074",
        "7_1"
      ],
      [
        "Alias_0070",
        "3_1"
      ],
      [
        "Alias_0070",
        "0_1"
      ],
      [
        "Alias_0070",
        "9_1"
      ],
      [
        "Alias_0070",
        "0_0"
      ],
      [
        "Alias_0041",
        "8_1"
      ],
      [
        "Alias_0041",
        "1_1"
      ],
      [
        "Alias_0041",
        "6_1"
      ],
      [
        "Alias_0002",
        "2_0"
      ],
      [
        "Alias_0002",
        "1_0"
      ],
      [
        "Alias_0094",
        "3_1"
      ],
      [
        "Alias_0094",
        "2_1"
      ],
      [
        "Alias_0080",
        "9_0"
      ],
      [
        "Alias_0037",
        "2_0"
      ],
      [
        "Alias_0037",
        "3_1"
      ],
      [
        "Alias_0037",
        "0_1"
      ],
      [
        "Alias_0037",
        "6_1"
      ],
      [
        "Alias_0037",
        "0_0"
      ],
      [
        "Alias_0062",
        "8_1"
      ],
      [
        "Alias_0062",
        "9_1"
      ],
      [
        "Alias_0062",
        "1_0"
      ],
      [
        "Alias_0020",
        "9_0"
      ],
      [
        "Alias_0020",
        "1_1"
      ],
      [
        "Alias_0020",
        "0_0"
      ],
      [
        "Alias_0028",
        "2_1"
      ],
      [
        "Alias_0028",
        "9_1"
      ],
      [
        "Alias_0013",
        "1_1"
      ],
      [
        "Alias_0025",
        "3_0"
      ],
      [
        "Alias_0025",
        "3_1"
      ],
      [
        "Alias_0026",
        "2_1"
      ],
      [
        "Alias_0026",
        "7_1"
      ],
      [
        "Alias_0095",
        "6_0"
      ],
      [
        "Alias_0095",
        "3_0"
      ],
      [
        "Alias_0095",
        "3_1"
      ],
      [
        "Alias_0095",
        "1_0"
      ],
      [
        "Alias_0097",
        "9_1"
      ],
      [
        "Alias_0099",
        "9_0"
      ],
      [
        "Alias_0099",
        "1_0"
      ],
      [
        "Alias_0064",
        "0_1"
      ],
      [
        "Alias_0064",
        "4_0"
      ],
      [
        "Alias_0064",
        "0_0"
      ],
      [
        "Alias_0052",
        "8_0"
      ],
      [
        "Alias_0052",
        "1_1"
      ],
      [
        "Alias_0055",
        "3_0"
      ],
      [
        "Alias_0055",
        "4_1"
      ],
      [
        "Alias_0055",
        "8_0"
      ],
      [
        "Alias_0055",
        "9_1"
      ],
      [
        "Alias_0055",
        "5_1"
      ],
      [
        "Alias_0055",
        "4_0"
      ],
      [
        "Alias_0060",
        "3_1"
      ],
      [
        "Alias_0060",
        "8_0"
      ],
      [
        "Alias_0076",
        "4_1"
      ],
      [
        "Alias_0078",
        "3_0"
      ],
      [
        "Alias_0078",
        "0_1"
      ],
      [
        "Alias_0078",
        "7_0"
      ],
      [
        "Alias_0078",
        "6_1"
      ],
      [
        "Alias_0016",
        "3_0"
      ],
      [
        "Alias_0016",
        "1_0"
      ],
      [
        "Alias_0019",
        "3_1"
      ],
      [
        "Alias_0033",
        "1_1"
      ],
      [
        "Alias_0033",
        "5_0"
      ],
      [
        "Alias_0077",
        "6_0"
      ],
      [
        "Alias_0077",
        "4_1"
      ],
      [
        "Alias_0077",
        "7_0"
      ],
      [
        "Alias_0077",
        "5_0"
      ],
      [
        "Alias_0077",
        "1_0"
      ],
      [
        "Alias_0051",
        "4_0"
      ],
      [
        "Alias_0051",
        "0_0"
      ],
      [
        "Alias_0023",
        "9_0"
      ],
      [
        "Alias_0023",
        "4_0"
      ],
      [
        "Alias_0023",
        "0_0"
      ],
      [
        "Alias_0027",
        "8_1"
      ],
      [
        "Alias_0027",
        "8_0"
      ],
      [
        "Alias_0027",
        "1_0"
      ],
      [
        "Alias_0065",
        "6_0"
      ],
      [
        "Alias_0065",
        "7_0"
      ],
      [
        "Alias_0081",
        "4_1"
      ],
      [
        "Alias_0081",
        "1_1"
      ],
      [
        "Alias_0089",
        "8_1"
      ],
      [
        "Alias_0089",
        "3_1"
      ],
      [
        "Alias_0089",
        "9_1"
      ],
      [
        "Alias_0015",
        "2_0"
      ],
      [
        "Alias_0015",
        "8_0"
      ],
      [
        "Alias_0015",
        "9_1"
      ],
      [
        "Alias_0031",
        "2_0"
      ],
      [
        "Alias_0031",
        "4_1"
      ],
      [
        "Alias_0031",
        "3_1"
      ],
      [
        "Alias_0031",
        "0_0"
      ],
      [
        "Alias_0001",
        "9_0"
      ],
      [
        "Alias_0001",
        "8_0"
      ],
      [
        "Alias_0001",
        "7_0"
      ],
      [
        "Alias_0001",
        "5_1"
      ],
      [
        "Alias_0073",
        "5_0"
      ],
      [
        "Alias_0073",
        "5_1"
      ],
      [
        "Alias_0067",
        "8_1"
      ],
      [
        "Alias_0067",
        "5_0"
      ],
      [
        "Alias_0067",
        "1_0"
      ],
      [
        "Alias_0067",
        "0_0"
      ],
      [
        "Alias_0084",
        "2_0"
      ],
      [
        "Alias_0084",
        "2_1"
      ],
      [
        "Alias_0085",
        "2_0"
      ],
      [
        "Alias_0085",
        "4_1"
      ],
      [
        "Alias_0085",
        "1_1"
      ],
      [
        "Alias_0039",
        "4_0"
      ],
      [
        "Alias_0072",
        "3_0"
      ],
      [
        "Alias_0072",
        "9_1"
      ],
      [
        "Alias_0072",
        "4_0"
      ],
      [
        "Alias_0086",
        "2_1"
      ],
      [
        "Alias_0086",
        "8_0"
      ],
      [
        "Alias_0086",
        "0_1"
      ],
      [
        "Alias_0086",
        "7_0"
      ],
      [
        "Alias_0086",
        "6_1"
      ],
      [
        "Alias_0003",
        "1_1"
      ],
      [
        "Alias_0003",
        "7_1"
      ],
      [
        "Alias_0003",
        "9_1"
      ],
      [
        "Alias_0069",
        "2_1"
      ],
      [
        "Alias_0069",
        "5_1"
      ],
      [
        "Alias_0017",
        "4_1"
      ],
      [
        "Alias_0017",
        "3_1"
      ],
      [
        "Alias_0058",
        "4_0"
      ],
      [
        "Alias_0091",
        "3_0"
      ],
      [
        "Alias_0091",
        "6_1"
      ],
      [
        "Alias_0091",
        "0_0"
      ],
      [
        "Alias_0092",
        "8_1"
      ],
      [
        "Alias_0082",
        "2_1"
      ],
      [
        "Alias_0082",
        "1_1"
      ],
      [
        "Alias_0036",
        "9_1"
      ],
      [
        "Alias_0038",
        "2_1"
      ],
      [
        "Alias_0038",
        "7_0"
      ],
      [
        "Alias_0038",
        "4_0"
      ],
      [
        "Alias_0043",
        "6_0"
      ],
      [
        "Alias_0043",
        "2_0"
      ],
      [
        "Alias_0043",
        "0_0"
      ],
      [
        "Alias_0021",
        "8_1"
      ],
      [
        "Alias_0021",
        "2_0"
      ],
      [
        "Alias_0096",
        "2_0"
      ],
      [
        "Alias_0096",
        "2_1"
      ],
      [
        "Alias_0098",
        "8_0"
      ],
      [
        "Alias_0098",
        "1_1"
      ],
      [
        "Alias_0098",
        "7_1"
      ],
      [
        "Alias_0098",
        "9_1"
      ],
      [
        "Alias_0034",
        "4_1"
      ],
      [
        "Alias_0034",
        "0_0"
      ],
      [
        "Alias_0008",
        "3_0"
      ],
      [
        "Alias_0008",
        "4_1"
      ],
      [
        "Alias_0008",
        "5_0"
      ],
      [
        "Alias_0008",
        "1_0"
      ],
      [
        "Alias_0022",
        "2_0"
      ],
      [
        "Alias_0022",
        "2_1"
      ],
      [
        "Alias_0022",
        "0_1"
      ],
      [
        "Alias_0022",
        "5_1"
      ],
      [
        "Alias_0022",
        "1_0"
      ],
      [
        "Alias_0061",
        "2_0"
      ],
      [
        "Alias_0061",
        "4_1"
      ],
      [
        "Alias_0061",
        "2_1"
      ],
      [
        "Alias_0061",
        "9_1"
      ],
      [
        "Alias_0061",
        "1_0"
      ],
      [
        "Alias_0083",
        "0_1"
      ],
      [
        "Alias_0000",
        "3_1"
      ],
      [
        "Alias_0004",
        "6_0"
      ],
      [
        "Alias_0004",
        "0_1"
      ],
      [
        "Alias_0004",
        "1_1"
      ],
      [
        "Alias_0004",
        "7_0"
      ],
      [
        "Alias_0004",
        "6_1"
      ],
      [
        "Alias_0066",
        "6_0"
      ],
      [
        "Alias_0066",
        "9_1"
      ],
      [
        "Alias_0066",
        "6_1"
      ],
      [
        "Alias_0005",
        "6_0"
      ],
      [
        "Alias_0005",
        "9_1"
      ],
      [
        "Alias_0049",
        "8_0"
      ],
      [
        "Alias_0049",
        "1_0"
      ],
      [
        "Alias_0035",
        "2_0"
      ],
      [
        "Alias_0035",
        "6_1"
      ],
      [
        "Alias_0035",
        "5_1"
      ],
      [
        "Alias_0057",
        "6_0"
      ],
      [
        "Alias_0057",
        "8_1"
      ],
      [
        "Alias_0057",
        "3_1"
      ],
      [
        "Alias_0057",
        "1_1"
      ],
      [
        "Alias_0057",
        "6_1"
      ],
      [
        "Alias_0057",
        "0_0"
      ],
      [
        "Alias_0018",
        "2_1"
      ],
      [
        "Alias_0018",
        "7_0"
      ],
      [
        "Alias_0018",
        "9_1"
      ],
      [
        "Alias_0059",
        "9_0"
      ],
      [
        "Alias_0059",
        "1_1"
      ],
      [
        "Alias_0059",
        "1_0"
      ],
      [
        "Alias_0024",
        "7_0"
      ],
      [
        "Alias_0024",
        "5_0"
      ],
      [
        "Alias_0024",
        "1_0"
      ],
      [
        "Alias_0068",
        "7_0"
      ],
      [
        "Alias_0068",
        "5_0"
      ],
      [
        "Alias_0068",
        "5_1"
      ],
      [
        "Alias_0014",
        "3_0"
      ],
      [
        "Alias_0014",
        "8_1"
      ],
      [
        "Alias_0014",
        "6_1"
      ],
      [
        "Alias_0014",
        "5_1"
      ],
      [
        "Alias_0014",
        "1_0"
      ],
      [
        "Alias_0045",
        "5_1"
      ],
      [
        "Alias_0090",
        "3_1"
      ],
      [
        "Alias_0090",
        "5_1"
      ],
      [
        "Alias_0032",
        "4_0"
      ],
      [
        "Alias_0011",
        "6_0"
      ],
      [
        "Alias_0011",
        "8_0"
      ],
      [
        "Alias_0011",
        "6_1"
      ],
      [
        "Alias_0087",
        "3_0"
      ],
      [
        "Alias_0087",
        "2_0"
      ],
      [
        "Alias_0087",
        "7_0"
      ],
      [
        "Alias_0087",
        "7_1"
      ],
      [
        "Alias_0087",
        "4_0"
      ],
      [
        "Alias_0006",
        "3_0"
      ],
      [
        "Alias_0006",
        "7_1"
      ],
      [
        "Alias_0006",
        "5_0"
      ],
      [
        "Alias_0006",
        "5_1"
      ],
      [
        "Alias_0006",
        "0_0"
      ],
      [
        "Alias_0007",
        "1_1"
      ],
      [
        "Alias_0007",
        "0_0"
      ],
      [
        "Alias_0046",
        "6_0"
      ],
      [
        "Alias_0046",
        "3_1"
      ],
      [
        "Alias_0046",
        "5_1"
      ],
      [
        "Alias_0046",
        "0_0"
      ],
      [
        "Alias_0047",
        "6_1"
      ],
      [
        "Alias_0047",
        "0_0"
      ],
      [
        "Alias_0053",
        "9_0"
      ],
      [
        "Alias_0053",
        "9_1"
      ],
      [
        "Alias_0030",
        "3_1"
      ],
      [
        "Alias_0030",
        "8_0"
      ],
      [
        "Alias_0030",
        "7_0"
      ],
      [
        "Alias_0048",
        "2_0"
      ],
      [
        "Alias_0063",
        "7_1"
      ],
      [
        "Alias_0042",
        "6_0"
      ],
      [
        "Alias_0079",
        "8_1"
      ],
      [
        "Alias_0093",
        "3_0"
      ],
      [
        "Alias_0093",
        "8_1"
      ],
      [
        "Alias_0093",
        "9_1"
      ],
      [
        "Alias_0012",
        "8_0"
      ],
      [
        "Entity_0041",
        "1"
      ],
      [
        "Entity_0018",
        "9"
      ],
      [
        "Entity_0053",
        "2"
      ],
      [
        "Entity_0001",
        "0"
      ],
      [
        "Entity_0001",
        "8"
      ],
      [
        "Entity_0011",
        "1"
      ],
      [
        "Entity_0011",
        "2"
      ],
      [
        "Entity_0083",
        "5"
      ],
      [
        "Entity_0083",
        "7"
      ],
      [
        "Entity_0023",
        "9"
      ],
      [
        "Entity_0091",
        "9"
      ],
      [
        "Entity_0048",
        "7"
      ],
      [
        "Entity_0058",
        "1"
      ],
      [
        "Entity_0058",
        "8"
      ],
      [
        "Entity_0058",
        "9"
      ],
      [
        "Entity_0003",
        "1"
      ],
      [
        "Entity_0003",
        "7"
      ],
      [
        "Entity_0003",
        "9"
      ],
      [
        "Entity_0061",
        "7"
      ],
      [
        "Entity_0068",
        "9"
      ],
      [
        "Entity_0008",
        "5"
      ],
      [
        "Entity_0063",
        "9"
      ],
      [
        "Entity_0093",
        "4"
      ],
      [
        "Entity_0031",
        "0"
      ],
      [
        "Entity_0031",
        "1"
      ],
      [
        "Entity_0038",
        "6"
      ],
      [
        "Entity_0038",
        "7"
      ],
      [
        "Entity_0013",
        "2"
      ],
      [
        "Entity_0013",
        "3"
      ],
      [
        "Entity_0013",
        "6"
      ],
      [
        "Entity_0033",
        "3"
      ],
      [
        "Entity_0043",
        "1"
      ],
      [
        "Entity_0043",
        "8"
      ],
      [
        "Entity_0073",
        "0"
      ],
      [
        "Entity_0051",
        "8"
      ],
      [
        "Entity_0071",
        "1"
      ],
      [
        "Entity_0071",
        "4"
      ],
      [
        "Entity_001",
        "09"
      ],
      [
        "Entity_001",
        "93"
      ],
      [
        "Entity_001",
        "73"
      ],
      [
        "Entity_001",
        "00"
      ],
      [
        "Entity_001",
        "70"
      ],
      [
        "Entity_001",
        "26"
      ],
      [
        "Entity_001",
        "62"
      ],
      [
        "Entity_001",
        "76"
      ],
      [
        "Entity_001",
        "45"
      ],
      [
        "Entity_000",
        "53"
      ],
      [
        "Entity_000",
        "64"
      ],
      [
        "Entity_000",
        "58"
      ],
      [
        "Entity_000",
        "62"
      ],
      [
        "Entity_000",
        "08"
      ],
      [
        "Entity_000",
        "74"
      ],
      [
        "Entity_000",
        "21"
      ],
      [
        "Entity_000",
        "45"
      ],
      [
        "Entity_000",
        "03"
      ],
      [
        "Entity_000",
        "23"
      ],
      [
        "Entity_006",
        "52"
      ],
      [
        "Entity_006",
        "53"
      ],
      [
        "Entity_006",
        "55"
      ],
      [
        "Entity_006",
        "67"
      ],
      [
        "Entity_006",
        "98"
      ],
      [
        "Entity_006",
        "00"
      ],
      [
        "Entity_006",
        "44"
      ],
      [
        "Entity_006",
        "42"
      ],
      [
        "Entity_006",
        "62"
      ],
      [
        "Entity_006",
        "51"
      ],
      [
        "Entity_006",
        "25"
      ],
      [
        "Entity_006",
        "08"
      ],
      [
        "Entity_006",
        "49"
      ],
      [
        "Entity_006",
        "61"
      ],
      [
        "Entity_003",
        "02"
      ],
      [
        "Entity_003",
        "42"
      ],
      [
        "Entity_003",
        "62"
      ],
      [
        "Entity_003",
        "63"
      ],
      [
        "Entity_003",
        "76"
      ],
      [
        "Entity_003",
        "23"
      ],
      [
        "Entity_004",
        "66"
      ],
      [
        "Entity_004",
        "00"
      ],
      [
        "Entity_004",
        "70"
      ],
      [
        "Entity_004",
        "28"
      ],
      [
        "Entity_004",
        "07"
      ],
      [
        "Entity_004",
        "75"
      ],
      [
        "Entity_004",
        "08"
      ],
      [
        "Entity_004",
        "43"
      ],
      [
        "Entity_005",
        "95"
      ],
      [
        "Entity_005",
        "66"
      ],
      [
        "Entity_005",
        "53"
      ],
      [
        "Entity_005",
        "05"
      ],
      [
        "Entity_005",
        "44"
      ],
      [
        "Entity_005",
        "20"
      ],
      [
        "Entity_005",
        "54"
      ],
      [
        "Entity_005",
        "65"
      ],
      [
        "Entity_005",
        "75"
      ],
      [
        "Entity_005",
        "61"
      ],
      [
        "Entity_005",
        "74"
      ],
      [
        "Entity_005",
        "77"
      ],
      [
        "Entity_005",
        "56"
      ],
      [
        "Entity_005",
        "03"
      ],
      [
        "Entity_005",
        "04"
      ],
      [
        "Entity_005",
        "96"
      ],
      [
        "Entity_005",
        "78"
      ],
      [
        "Entity_008",
        "05"
      ],
      [
        "Entity_008",
        "98"
      ],
      [
        "Entity_008",
        "57"
      ],
      [
        "Entity_008",
        "72"
      ],
      [
        "Entity_008",
        "42"
      ],
      [
        "Entity_008",
        "99"
      ],
      [
        "Entity_008",
        "76"
      ],
      [
        "Entity_008",
        "08"
      ],
      [
        "Entity_008",
        "94"
      ],
      [
        "Entity_008",
        "60"
      ],
      [
        "Entity_008",
        "96"
      ],
      [
        "Entity_009",
        "29"
      ],
      [
        "Entity_009",
        "73"
      ],
      [
        "Entity_009",
        "58"
      ],
      [
        "Entity_009",
        "71"
      ],
      [
        "Entity_009",
        "07"
      ],
      [
        "Entity_009",
        "25"
      ],
      [
        "Entity_009",
        "03"
      ],
      [
        "Entity_009",
        "90"
      ],
      [
        "Entity_007",
        "52"
      ],
      [
        "Entity_007",
        "73"
      ],
      [
        "Entity_007",
        "64"
      ],
      [
        "Entity_007",
        "20"
      ],
      [
        "Entity_007",
        "41"
      ],
      [
        "Entity_007",
        "71"
      ],
      [
        "Entity_007",
        "62"
      ],
      [
        "Entity_007",
        "76"
      ],
      [
        "Entity_007",
        "01"
      ],
      [
        "Entity_007",
        "61"
      ],
      [
        "Entity_007",
        "56"
      ],
      [
        "Entity_007",
        "96"
      ],
      [
        "Entity_007",
        "78"
      ],
      [
        "Entity_002",
        "09"
      ],
      [
        "Entity_002",
        "67"
      ],
      [
        "Entity_002",
        "93"
      ],
      [
        "Entity_002",
        "02"
      ],
      [
        "Entity_002",
        "72"
      ],
      [
        "Entity_002",
        "07"
      ],
      [
        "Entity_002",
        "51"
      ],
      [
        "Entity_002",
        "63"
      ],
      [
        "Entity_002",
        "25"
      ],
      [
        "Entity_002",
        "75"
      ],
      [
        "Entity_002",
        "61"
      ],
      [
        "Entity_002",
        "45"
      ],
      [
        "Entity_002",
        "59"
      ],
      [
        "Alias_0054",
        "1_1"
      ],
      [
        "Alias_0054",
        "5_0"
      ],
      [
        "Alias_0054",
        "1_0"
      ],
      [
        "Alias_0010",
        "4_0"
      ],
      [
        "Alias_0074",
        "6_0"
      ],
      [
        "Alias_0074",
        "2_0"
      ],
      [
        "Alias_0074",
        "3_1"
      ],
      [
        "Alias_0074",
        "0_0"
      ],
      [
        "Alias_0070",
        "3_0"
      ],
      [
        "Alias_0070",
        "8_1"
      ],
      [
        "Alias_0070",
        "8_0"
      ],
      [
        "Alias_0070",
        "6_1"
      ],
      [
        "Alias_0041",
        "3_0"
      ],
      [
        "Alias_0041",
        "9_0"
      ],
      [
        "Alias_0041",
        "7_0"
      ],
      [
        "Alias_0041",
        "1_0"
      ],
      [
        "Alias_0002",
        "2_1"
      ],
      [
        "Alias_0002",
        "8_0"
      ],
      [
        "Alias_0002",
        "7_0"
      ],
      [
        "Alias_0002",
        "9_1"
      ],
      [
        "Alias_0002",
        "4_0"
      ],
      [
        "Alias_0094",
        "6_0"
      ],
      [
        "Alias_0094",
        "2_0"
      ],
      [
        "Alias_0094",
        "1_1"
      ],
      [
        "Alias_0094",
        "7_0"
      ],
      [
        "Alias_0094",
        "6_1"
      ],
      [
        "Alias_0094",
        "5_1"
      ],
      [
        "Alias_0094",
        "0_0"
      ],
      [
        "Alias_0080",
        "2_0"
      ],
      [
        "Alias_0080",
        "4_1"
      ],
      [
        "Alias_0080",
        "3_1"
      ],
      [
        "Alias_0080",
        "1_1"
      ],
      [
        "Alias_0080",
        "5_0"
      ],
      [
        "Alias_0080",
        "5_1"
      ],
      [
        "Alias_0037",
        "2_1"
      ],
      [
        "Alias_0037",
        "9_1"
      ],
      [
        "Alias_0037",
        "5_0"
      ],
      [
        "Alias_0037",
        "4_0"
      ],
      [
        "Alias_0062",
        "9_0"
      ],
      [
        "Alias_0062",
        "7_0"
      ],
      [
        "Alias_0062",
        "5_0"
      ],
      [
        "Alias_0062",
        "4_0"
      ],
      [
        "Alias_0040",
        "6_0"
      ],
      [
        "Alias_0040",
        "2_1"
      ],
      [
        "Alias_0040",
        "8_0"
      ],
      [
        "Alias_0040",
        "0_0"
      ],
      [
        "Alias_0020",
        "3_1"
      ],
      [
        "Alias_0020",
        "4_0"
      ],
      [
        "Alias_0028",
        "5_0"
      ],
      [
        "Alias_0028",
        "6_1"
      ],
      [
        "Alias_0028",
        "4_0"
      ],
      [
        "Alias_0013",
        "2_0"
      ],
      [
        "Alias_0013",
        "3_1"
      ],
      [
        "Alias_0013",
        "7_0"
      ],
      [
        "Alias_0013",
        "5_1"
      ],
      [
        "Alias_0013",
        "1_0"
      ],
      [
        "Alias_0025",
        "4_1"
      ],
      [
        "Alias_0025",
        "7_0"
      ],
      [
        "Alias_0026",
        "1_0"
      ],
      [
        "Alias_0095",
        "7_0"
      ],
      [
        "Alias_0095",
        "5_0"
      ],
      [
        "Alias_0095",
        "0_0"
      ],
      [
        "Alias_0097",
        "6_0"
      ],
      [
        "Alias_0097",
        "9_0"
      ],
      [
        "Alias_0097",
        "4_1"
      ],
      [
        "Alias_0097",
        "3_1"
      ],
      [
        "Alias_0097",
        "5_1"
      ],
      [
        "Alias_0099",
        "6_0"
      ],
      [
        "Alias_0099",
        "1_1"
      ],
      [
        "Alias_0099",
        "5_0"
      ],
      [
        "Alias_0064",
        "8_0"
      ],
      [
        "Alias_0064",
        "5_1"
      ],
      [
        "Alias_0052",
        "9_0"
      ],
      [
        "Alias_0052",
        "2_0"
      ],
      [
        "Alias_0052",
        "6_1"
      ],
      [
        "Alias_0056",
        "4_1"
      ],
      [
        "Alias_0056",
        "2_1"
      ],
      [
        "Alias_0056",
        "8_0"
      ],
      [
        "Alias_0056",
        "1_1"
      ],
      [
        "Alias_0056",
        "6_1"
      ],
      [
        "Alias_0056",
        "5_1"
      ],
      [
        "Alias_0055",
        "8_1"
      ],
      [
        "Alias_0055",
        "9_0"
      ],
      [
        "Alias_0055",
        "1_1"
      ],
      [
        "Alias_0055",
        "0_0"
      ],
      [
        "Alias_0060",
        "3_0"
      ],
      [
        "Alias_0060",
        "1_1"
      ],
      [
        "Alias_0060",
        "7_1"
      ],
      [
        "Alias_0060",
        "0_0"
      ],
      [
        "Alias_0076",
        "0_1"
      ],
      [
        "Alias_0076",
        "4_0"
      ],
      [
        "Alias_0016",
        "2_1"
      ],
      [
        "Alias_0016",
        "1_1"
      ],
      [
        "Alias_0016",
        "7_1"
      ],
      [
        "Alias_0016",
        "9_1"
      ],
      [
        "Alias_0016",
        "5_0"
      ],
      [
        "Alias_0016",
        "0_0"
      ],
      [
        "Alias_0019",
        "3_0"
      ],
      [
        "Alias_0019",
        "8_1"
      ],
      [
        "Alias_0050",
        "3_0"
      ],
      [
        "Alias_0050",
        "8_1"
      ],
      [
        "Alias_0050",
        "4_1"
      ],
      [
        "Alias_0050",
        "4_0"
      ],
      [
        "Alias_0033",
        "8_1"
      ],
      [
        "Alias_0033",
        "2_0"
      ],
      [
        "Alias_0033",
        "2_1"
      ],
      [
        "Alias_0033",
        "0_1"
      ],
      [
        "Alias_0033",
        "9_1"
      ],
      [
        "Alias_0033",
        "6_1"
      ],
      [
        "Alias_0033",
        "0_0"
      ],
      [
        "Alias_0077",
        "9_0"
      ],
      [
        "Alias_0077",
        "2_1"
      ],
      [
        "Alias_0077",
        "5_1"
      ],
      [
        "Alias_0077",
        "4_0"
      ],
      [
        "Alias_0077",
        "0_0"
      ],
      [
        "Alias_0051",
        "9_0"
      ],
      [
        "Alias_0051",
        "7_1"
      ],
      [
        "Alias_0023",
        "2_0"
      ],
      [
        "Alias_0023",
        "0_1"
      ],
      [
        "Alias_0023",
        "7_0"
      ],
      [
        "Alias_0027",
        "9_0"
      ],
      [
        "Alias_0027",
        "2_0"
      ],
      [
        "Alias_0027",
        "0_1"
      ],
      [
        "Alias_0027",
        "1_1"
      ],
      [
        "Alias_0027",
        "7_1"
      ],
      [
        "Alias_0027",
        "6_1"
      ],
      [
        "Alias_0065",
        "9_1"
      ],
      [
        "Alias_0065",
        "4_0"
      ],
      [
        "Alias_0065",
        "0_0"
      ],
      [
        "Alias_0081",
        "8_1"
      ],
      [
        "Alias_0089",
        "9_0"
      ],
      [
        "Alias_0015",
        "8_1"
      ],
      [
        "Alias_0015",
        "7_1"
      ],
      [
        "Alias_0015",
        "6_1"
      ],
      [
        "Alias_0015",
        "4_0"
      ],
      [
        "Alias_0031",
        "3_0"
      ],
      [
        "Alias_0001",
        "6_0"
      ],
      [
        "Alias_0001",
        "2_0"
      ],
      [
        "Alias_0001",
        "0_1"
      ],
      [
        "Alias_0001",
        "1_1"
      ],
      [
        "Alias_0001",
        "9_1"
      ],
      [
        "Alias_0073",
        "2_1"
      ],
      [
        "Alias_0067",
        "3_0"
      ],
      [
        "Alias_0067",
        "3_1"
      ],
      [
        "Alias_0067",
        "1_1"
      ],
      [
        "Alias_0084",
        "8_0"
      ],
      [
        "Alias_0084",
        "1_1"
      ],
      [
        "Alias_0084",
        "9_1"
      ],
      [
        "Alias_0084",
        "5_0"
      ],
      [
        "Alias_0085",
        "2_1"
      ],
      [
        "Alias_0085",
        "5_0"
      ],
      [
        "Alias_0085",
        "6_1"
      ],
      [
        "Alias_0039",
        "3_1"
      ],
      [
        "Alias_0039",
        "2_1"
      ],
      [
        "Alias_0039",
        "9_1"
      ],
      [
        "Alias_0072",
        "6_0"
      ],
      [
        "Alias_0072",
        "5_0"
      ],
      [
        "Alias_0072",
        "1_0"
      ],
      [
        "Alias_0086",
        "3_0"
      ],
      [
        "Alias_0086",
        "7_1"
      ],
      [
        "Alias_0086",
        "5_1"
      ],
      [
        "Alias_0003",
        "0_1"
      ],
      [
        "Alias_0069",
        "9_0"
      ],
      [
        "Alias_0069",
        "2_0"
      ],
      [
        "Alias_0069",
        "8_0"
      ],
      [
        "Alias_0069",
        "0_1"
      ],
      [
        "Alias_0069",
        "9_1"
      ],
      [
        "Alias_0069",
        "6_1"
      ],
      [
        "Alias_0069",
        "1_0"
      ],
      [
        "Alias_0017",
        "5_1"
      ],
      [
        "Alias_0017",
        "4_0"
      ],
      [
        "Alias_0058",
        "6_0"
      ],
      [
        "Alias_0058",
        "4_1"
      ],
      [
        "Alias_0058",
        "3_1"
      ],
      [
        "Alias_0091",
        "8_0"
      ],
      [
        "Alias_0091",
        "5_0"
      ],
      [
        "Alias_0092",
        "4_1"
      ],
      [
        "Alias_0092",
        "5_0"
      ],
      [
        "Alias_0082",
        "3_0"
      ],
      [
        "Alias_0082",
        "2_0"
      ],
      [
        "Alias_0082",
        "9_1"
      ],
      [
        "Alias_0082",
        "5_0"
      ],
      [
        "Alias_0036",
        "6_1"
      ],
      [
        "Alias_0036",
        "1_0"
      ],
      [
        "Alias_0036",
        "4_0"
      ],
      [
        "Alias_0036",
        "0_0"
      ],
      [
        "Alias_0038",
        "3_1"
      ],
      [
        "Alias_0043",
        "9_0"
      ],
      [
        "Alias_0043",
        "0_1"
      ],
      [
        "Alias_0043",
        "7_0"
      ],
      [
        "Alias_0021",
        "6_0"
      ],
      [
        "Alias_0021",
        "3_0"
      ],
      [
        "Alias_0021",
        "7_1"
      ],
      [
        "Alias_0021",
        "5_0"
      ],
      [
        "Alias_0021",
        "6_1"
      ],
      [
        "Alias_0096",
        "7_1"
      ],
      [
        "Alias_0096",
        "0_0"
      ],
      [
        "Alias_0098",
        "2_1"
      ],
      [
        "Alias_0034",
        "9_0"
      ],
      [
        "Alias_0034",
        "2_0"
      ],
      [
        "Alias_0034",
        "3_1"
      ],
      [
        "Alias_0034",
        "8_0"
      ],
      [
        "Alias_0008",
        "8_0"
      ],
      [
        "Alias_0008",
        "5_1"
      ],
      [
        "Alias_0008",
        "4_0"
      ],
      [
        "Alias_0022",
        "7_0"
      ],
      [
        "Alias_0022",
        "9_1"
      ],
      [
        "Alias_0061",
        "7_1"
      ],
      [
        "Alias_0061",
        "4_0"
      ],
      [
        "Alias_0061",
        "0_0"
      ],
      [
        "Alias_0083",
        "8_0"
      ],
      [
        "Alias_0083",
        "1_1"
      ],
      [
        "Alias_0083",
        "7_0"
      ],
      [
        "Alias_0083",
        "9_1"
      ],
      [
        "Alias_0083",
        "6_1"
      ],
      [
        "Alias_0083",
        "5_1"
      ],
      [
        "Alias_0000",
        "3_0"
      ],
      [
        "Alias_0000",
        "8_1"
      ],
      [
        "Alias_0000",
        "0_1"
      ],
      [
        "Alias_0000",
        "7_0"
      ],
      [
        "Alias_0004",
        "9_1"
      ],
      [
        "Alias_0066",
        "2_0"
      ],
      [
        "Alias_0066",
        "8_0"
      ],
      [
        "Alias_0005",
        "4_1"
      ],
      [
        "Alias_0005",
        "3_1"
      ],
      [
        "Alias_0005",
        "6_1"
      ],
      [
        "Alias_0049",
        "5_0"
      ],
      [
        "Alias_0049",
        "6_1"
      ],
      [
        "Alias_0035",
        "9_0"
      ],
      [
        "Alias_0035",
        "4_1"
      ],
      [
        "Alias_0035",
        "0_1"
      ],
      [
        "Alias_0035",
        "1_1"
      ],
      [
        "Alias_0057",
        "9_1"
      ],
      [
        "Alias_0029",
        "9_0"
      ],
      [
        "Alias_0029",
        "2_1"
      ],
      [
        "Alias_0029",
        "9_1"
      ],
      [
        "Alias_0018",
        "3_1"
      ],
      [
        "Alias_0018",
        "0_1"
      ],
      [
        "Alias_0018",
        "1_0"
      ],
      [
        "Alias_0018",
        "0_0"
      ],
      [
        "Alias_0059",
        "7_0"
      ],
      [
        "Alias_0059",
        "5_1"
      ],
      [
        "Alias_0059",
        "0_0"
      ],
      [
        "Alias_0024",
        "9_0"
      ],
      [
        "Alias_0024",
        "9_1"
      ],
      [
        "Alias_0024",
        "5_1"
      ],
      [
        "Alias_0014",
        "6_0"
      ],
      [
        "Alias_0014",
        "9_0"
      ],
      [
        "Alias_0014",
        "0_1"
      ],
      [
        "Alias_0014",
        "7_0"
      ],
      [
        "Alias_0014",
        "7_1"
      ],
      [
        "Alias_0014",
        "0_0"
      ],
      [
        "Alias_0045",
        "2_1"
      ],
      [
        "Alias_0045",
        "1_1"
      ],
      [
        "Alias_0045",
        "9_1"
      ],
      [
        "Alias_0090",
        "8_0"
      ],
      [
        "Alias_0032",
        "9_0"
      ],
      [
        "Alias_0032",
        "0_1"
      ],
      [
        "Alias_0032",
        "7_0"
      ],
      [
        "Alias_0032",
        "5_0"
      ],
      [
        "Alias_0011",
        "5_1"
      ],
      [
        "Alias_0044",
        "0_1"
      ],
      [
        "Alias_0044",
        "7_1"
      ],
      [
        "Alias_0044",
        "1_0"
      ],
      [
        "Alias_0087",
        "8_0"
      ],
      [
        "Alias_0087",
        "9_1"
      ],
      [
        "Alias_0087",
        "1_0"
      ],
      [
        "Alias_0006",
        "2_0"
      ],
      [
        "Alias_0006",
        "0_1"
      ],
      [
        "Alias_0006",
        "1_1"
      ],
      [
        "Alias_0006",
        "9_1"
      ],
      [
        "Alias_0007",
        "8_1"
      ],
      [
        "Alias_0007",
        "2_1"
      ],
      [
        "Alias_0088",
        "2_0"
      ],
      [
        "Alias_0088",
        "7_1"
      ],
      [
        "Alias_0046",
        "7_0"
      ],
      [
        "Alias_0046",
        "6_1"
      ],
      [
        "Alias_0047",
        "2_1"
      ],
      [
        "Alias_0047",
        "0_1"
      ],
      [
        "Alias_0047",
        "7_0"
      ],
      [
        "Alias_0047",
        "7_1"
      ],
      [
        "Alias_0071",
        "0_1"
      ],
      [
        "Alias_0071",
        "5_0"
      ],
      [
        "Alias_0053",
        "8_0"
      ],
      [
        "Alias_0053",
        "5_0"
      ],
      [
        "Alias_0048",
        "5_0"
      ],
      [
        "Alias_0048",
        "5_1"
      ],
      [
        "Alias_0009",
        "1_1"
      ],
      [
        "Alias_0009",
        "1_0"
      ],
      [
        "Alias_0009",
        "4_0"
      ],
      [
        "Alias_0063",
        "3_1"
      ],
      [
        "Alias_0042",
        "9_0"
      ],
      [
        "Alias_0042",
        "7_1"
      ],
      [
        "Alias_0042",
        "6_1"
      ],
      [
        "Alias_0079",
        "6_0"
      ],
      [
        "Alias_0079",
        "2_0"
      ],
      [
        "Alias_0093",
        "7_0"
      ],
      [
        "Alias_0012",
        "9_0"
      ],
      [
        "Alias_0012",
        "3_1"
      ],
      [
        "Entity_0041",
        "9"
      ],
      [
        "Entity_0018",
        "2"
      ],
      [
        "Entity_0018",
        "4"
      ],
      [
        "Entity_0053",
        "7"
      ],
      [
        "Entity_0001",
        "3"
      ],
      [
        "Entity_0011",
        "3"
      ],
      [
        "Entity_0011",
        "8"
      ],
      [
        "Entity_0098",
        "9"
      ],
      [
        "Entity_0023",
        "1"
      ],
      [
        "Entity_0023",
        "3"
      ],
      [
        "Entity_0023",
        "5"
      ],
      [
        "Entity_0091",
        "1"
      ],
      [
        "Entity_0091",
        "7"
      ],
      [
        "Entity_0048",
        "0"
      ],
      [
        "Entity_0048",
        "2"
      ],
      [
        "Entity_0048",
        "5"
      ],
      [
        "Entity_0048",
        "6"
      ],
      [
        "Entity_0048",
        "9"
      ],
      [
        "Entity_0058",
        "4"
      ],
      [
        "Entity_0058",
        "5"
      ],
      [
        "Entity_0003",
        "4"
      ],
      [
        "Entity_0068",
        "1"
      ],
      [
        "Entity_0068",
        "2"
      ],
      [
        "Entity_0021",
        "4"
      ],
      [
        "Entity_0021",
        "8"
      ],
      [
        "Entity_0021",
        "9"
      ],
      [
        "Entity_0008",
        "2"
      ],
      [
        "Entity_0063",
        "3"
      ],
      [
        "Entity_0063",
        "4"
      ],
      [
        "Entity_0093",
        "5"
      ],
      [
        "Entity_0093",
        "8"
      ],
      [
        "Entity_0031",
        "7"
      ],
      [
        "Entity_0031",
        "9"
      ],
      [
        "Entity_0038",
        "4"
      ],
      [
        "Entity_0013",
        "5"
      ],
      [
        "Entity_0033",
        "5"
      ],
      [
        "Entity_0033",
        "8"
      ],
      [
        "Entity_0043",
        "5"
      ],
      [
        "Entity_0043",
        "9"
      ],
      [
        "Entity_0051",
        "9"
      ],
      [
        "Entity_0081",
        "2"
      ],
      [
        "Entity_0071",
        "7"
      ],
      [
        "Entity_0028",
        "5"
      ],
      [
        "Entity_0078",
        "2"
      ],
      [
        "Entity_0078",
        "3"
      ],
      [
        "Entity_0078",
        "6"
      ],
      [
        "Entity_001",
        "02"
      ],
      [
        "Entity_001",
        "20"
      ],
      [
        "Entity_001",
        "07"
      ],
      [
        "Entity_001",
        "25"
      ],
      [
        "Entity_001",
        "08"
      ],
      [
        "Entity_001",
        "49"
      ],
      [
        "Entity_001",
        "61"
      ],
      [
        "Entity_001",
        "74"
      ],
      [
        "Entity_001",
        "56"
      ],
      [
        "Entity_001",
        "60"
      ],
      [
        "Entity_001",
        "92"
      ],
      [
        "Entity_001",
        "47"
      ],
      [
        "Entity_001",
        "59"
      ],
      [
        "Entity_000",
        "55"
      ],
      [
        "Entity_000",
        "05"
      ],
      [
        "Entity_000",
        "00"
      ],
      [
        "Entity_000",
        "69"
      ],
      [
        "Entity_000",
        "94"
      ],
      [
        "Entity_006",
        "27"
      ],
      [
        "Entity_006",
        "29"
      ],
      [
        "Entity_006",
        "73"
      ],
      [
        "Entity_006",
        "22"
      ],
      [
        "Entity_006",
        "72"
      ],
      [
        "Entity_006",
        "28"
      ],
      [
        "Entity_006",
        "54"
      ],
      [
        "Entity_006",
        "48"
      ],
      [
        "Entity_006",
        "77"
      ],
      [
        "Entity_006",
        "69"
      ],
      [
        "Entity_006",
        "04"
      ],
      [
        "Entity_006",
        "96"
      ],
      [
        "Entity_006",
        "47"
      ],
      [
        "Entity_006",
        "78"
      ],
      [
        "Entity_003",
        "79"
      ],
      [
        "Entity_003",
        "05"
      ],
      [
        "Entity_003",
        "27"
      ],
      [
        "Entity_003",
        "97"
      ],
      [
        "Entity_003",
        "41"
      ],
      [
        "Entity_003",
        "71"
      ],
      [
        "Entity_003",
        "46"
      ],
      [
        "Entity_003",
        "99"
      ],
      [
        "Entity_003",
        "48"
      ],
      [
        "Entity_003",
        "25"
      ],
      [
        "Entity_003",
        "08"
      ],
      [
        "Entity_003",
        "49"
      ],
      [
        "Entity_003",
        "77"
      ],
      [
        "Entity_003",
        "45"
      ],
      [
        "Entity_004",
        "09"
      ],
      [
        "Entity_004",
        "55"
      ],
      [
        "Entity_004",
        "22"
      ],
      [
        "Entity_004",
        "57"
      ],
      [
        "Entity_004",
        "97"
      ],
      [
        "Entity_004",
        "58"
      ],
      [
        "Entity_004",
        "51"
      ],
      [
        "Entity_004",
        "63"
      ],
      [
        "Entity_004",
        "91"
      ],
      [
        "Entity_004",
        "59"
      ],
      [
        "Entity_005",
        "24"
      ],
      [
        "Entity_005",
        "52"
      ],
      [
        "Entity_005",
        "27"
      ],
      [
        "Entity_005",
        "42"
      ],
      [
        "Entity_005",
        "28"
      ],
      [
        "Entity_005",
        "62"
      ],
      [
        "Entity_005",
        "94"
      ],
      [
        "Entity_005",
        "60"
      ],
      [
        "Entity_005",
        "47"
      ],
      [
        "Entity_008",
        "66"
      ],
      [
        "Entity_008",
        "44"
      ],
      [
        "Entity_008",
        "41"
      ],
      [
        "Entity_008",
        "26"
      ],
      [
        "Entity_008",
        "07"
      ],
      [
        "Entity_008",
        "77"
      ],
      [
        "Entity_008",
        "43"
      ],
      [
        "Entity_009",
        "20"
      ],
      [
        "Entity_009",
        "42"
      ],
      [
        "Entity_009",
        "46"
      ],
      [
        "Entity_009",
        "76"
      ],
      [
        "Entity_009",
        "65"
      ],
      [
        "Entity_009",
        "75"
      ],
      [
        "Entity_009",
        "08"
      ],
      [
        "Entity_007",
        "93"
      ],
      [
        "Entity_007",
        "98"
      ],
      [
        "Entity_007",
        "00"
      ],
      [
        "Entity_007",
        "26"
      ],
      [
        "Entity_007",
        "46"
      ],
      [
        "Entity_007",
        "51"
      ],
      [
        "Entity_007",
        "99"
      ],
      [
        "Entity_007",
        "63"
      ],
      [
        "Entity_007",
        "75"
      ],
      [
        "Entity_007",
        "77"
      ],
      [
        "Entity_007",
        "69"
      ],
      [
        "Entity_007",
        "94"
      ],
      [
        "Entity_007",
        "45"
      ],
      [
        "Entity_007",
        "91"
      ],
      [
        "Entity_007",
        "59"
      ],
      [
        "Entity_002",
        "53"
      ],
      [
        "Entity_002",
        "05"
      ],
      [
        "Entity_002",
        "22"
      ],
      [
        "Entity_002",
        "41"
      ],
      [
        "Entity_002",
        "58"
      ],
      [
        "Entity_002",
        "26"
      ],
      [
        "Entity_002",
        "08"
      ],
      [
        "Entity_002",
        "78"
      ],
      [
        "Alias_0054",
        "6_0"
      ],
      [
        "Alias_0054",
        "8_1"
      ],
      [
        "Alias_0054",
        "9_0"
      ],
      [
        "Alias_0054",
        "0_0"
      ],
      [
        "Alias_0010",
        "3_1"
      ],
      [
        "Alias_0010",
        "9_1"
      ],
      [
        "Alias_0075",
        "6_0"
      ],
      [
        "Alias_0075",
        "2_0"
      ],
      [
        "Alias_0075",
        "2_1"
      ],
      [
        "Alias_0075",
        "8_0"
      ],
      [
        "Alias_0075",
        "5_1"
      ],
      [
        "Alias_0074",
        "8_1"
      ],
      [
        "Alias_0074",
        "9_0"
      ],
      [
        "Alias_0074",
        "5_1"
      ],
      [
        "Alias_0070",
        "2_0"
      ],
      [
        "Alias_0070",
        "4_0"
      ],
      [
        "Alias_0041",
        "3_1"
      ],
      [
        "Alias_0041",
        "2_1"
      ],
      [
        "Alias_0041",
        "8_0"
      ],
      [
        "Alias_0002",
        "1_1"
      ],
      [
        "Alias_0002",
        "0_0"
      ],
      [
        "Alias_0094",
        "8_1"
      ],
      [
        "Alias_0094",
        "8_0"
      ],
      [
        "Alias_0094",
        "0_1"
      ],
      [
        "Alias_0094",
        "7_1"
      ],
      [
        "Alias_0094",
        "4_0"
      ],
      [
        "Alias_0080",
        "8_1"
      ],
      [
        "Alias_0080",
        "0_0"
      ],
      [
        "Alias_0037",
        "9_0"
      ],
      [
        "Alias_0037",
        "1_0"
      ],
      [
        "Alias_0062",
        "4_1"
      ],
      [
        "Alias_0062",
        "8_0"
      ],
      [
        "Alias_0040",
        "7_0"
      ],
      [
        "Alias_0040",
        "9_1"
      ],
      [
        "Alias_0040",
        "5_1"
      ],
      [
        "Alias_0020",
        "8_1"
      ],
      [
        "Alias_0020",
        "2_0"
      ],
      [
        "Alias_0020",
        "7_1"
      ],
      [
        "Alias_0020",
        "6_1"
      ],
      [
        "Alias_0020",
        "1_0"
      ],
      [
        "Alias_0028",
        "1_1"
      ],
      [
        "Alias_0028",
        "7_1"
      ],
      [
        "Alias_0025",
        "2_0"
      ],
      [
        "Alias_0025",
        "2_1"
      ],
      [
        "Alias_0025",
        "8_0"
      ],
      [
        "Alias_0026",
        "8_1"
      ],
      [
        "Alias_0026",
        "7_0"
      ],
      [
        "Alias_0026",
        "6_1"
      ],
      [
        "Alias_0095",
        "4_1"
      ],
      [
        "Alias_0095",
        "2_1"
      ],
      [
        "Alias_0095",
        "0_1"
      ],
      [
        "Alias_0097",
        "3_0"
      ],
      [
        "Alias_0097",
        "7_1"
      ],
      [
        "Alias_0099",
        "3_0"
      ],
      [
        "Alias_0099",
        "2_1"
      ],
      [
        "Alias_0099",
        "8_0"
      ],
      [
        "Alias_0099",
        "0_1"
      ],
      [
        "Alias_0099",
        "7_0"
      ],
      [
        "Alias_0099",
        "5_1"
[...]
